{
  "version": "1.0",
  "truncation": null,
  "padding": null,
  "added_tokens": [
    {
      "id": 0,
      "content": "[UNK]",
      "single_word": false,
      "lstrip": false,
      "rstrip": false,
      "normalized": false,
      "special": true
    },
    {
      "id": 1,
      "content": "[CLS]",
      "single_word": false,
      "lstrip": false,
      "rstrip": false,
      "normalized": false,
      "special": true
    },
    {
      "id": 2,
      "content": "[SEP]",
      "single_word": false,
      "lstrip": false,
      "rstrip": false,
      "normalized": false,
      "special": true
    },
    {
      "id": 3,
      "content": "[PAD]",
      "single_word": false,
      "lstrip": false,
      "rstrip": false,
      "normalized": false,
      "special": true
    },
    {
      "id": 4,
      "content": "[MASK]",
      "single_word": false,
      "lstrip": false,
      "rstrip": false,
      "normalized": false,
      "special": true
    }
  ],
  "normalizer": null,
  "pre_tokenizer": {
    "type": "Whitespace"
  },
  "post_processor": null,
  "decoder": null,
  "model": {
    "type": "BPE",
    "dropout": null,
    "unk_token": "[UNK]",
    "continuing_subword_prefix": null,
    "end_of_word_suffix": null,
    "fuse_unk": false,
    "byte_fallback": false,
    "vocab": {
      "[UNK]": 0,
      "[CLS]": 1,
      "[SEP]": 2,
      "[PAD]": 3,
      "[MASK]": 4,
      "!": 5,
      "\"": 6,
      "#": 7,
      "$": 8,
      "%": 9,
      "&": 10,
      "'": 11,
      "(": 12,
      ")": 13,
      "*": 14,
      "+": 15,
      ",": 16,
      "-": 17,
      ".": 18,
      "/": 19,
      "0": 20,
      "1": 21,
      "2": 22,
      "3": 23,
      "4": 24,
      "5": 25,
      "6": 26,
      "7": 27,
      "8": 28,
      "9": 29,
      ":": 30,
      ";": 31,
      "<": 32,
      "=": 33,
      ">": 34,
      "?": 35,
      "@": 36,
      "A": 37,
      "B": 38,
      "C": 39,
      "D": 40,
      "E": 41,
      "F": 42,
      "G": 43,
      "H": 44,
      "I": 45,
      "J": 46,
      "K": 47,
      "L": 48,
      "M": 49,
      "N": 50,
      "O": 51,
      "P": 52,
      "Q": 53,
      "R": 54,
      "S": 55,
      "T": 56,
      "U": 57,
      "V": 58,
      "W": 59,
      "X": 60,
      "Y": 61,
      "Z": 62,
      "[": 63,
      "\\": 64,
      "]": 65,
      "^": 66,
      "_": 67,
      "`": 68,
      "a": 69,
      "b": 70,
      "c": 71,
      "d": 72,
      "e": 73,
      "f": 74,
      "g": 75,
      "h": 76,
      "i": 77,
      "j": 78,
      "k": 79,
      "l": 80,
      "m": 81,
      "n": 82,
      "o": 83,
      "p": 84,
      "q": 85,
      "r": 86,
      "s": 87,
      "t": 88,
      "u": 89,
      "v": 90,
      "w": 91,
      "x": 92,
      "y": 93,
      "z": 94,
      "|": 95,
      "}": 96,
      "~": 97,
      "": 98,
      "": 99,
      "¡": 100,
      "¢": 101,
      "£": 102,
      "¥": 103,
      "§": 104,
      "©": 105,
      "°": 106,
      "±": 107,
      "²": 108,
      "³": 109,
      "´": 110,
      "µ": 111,
      "·": 112,
      "º": 113,
      "½": 114,
      "¾": 115,
      "¿": 116,
      "Á": 117,
      "Ä": 118,
      "Å": 119,
      "Æ": 120,
      "Ç": 121,
      "É": 122,
      "Í": 123,
      "Î": 124,
      "Ñ": 125,
      "Ó": 126,
      "Ö": 127,
      "×": 128,
      "Ø": 129,
      "Ú": 130,
      "Ü": 131,
      "Þ": 132,
      "ß": 133,
      "à": 134,
      "á": 135,
      "â": 136,
      "ã": 137,
      "ä": 138,
      "å": 139,
      "æ": 140,
      "ç": 141,
      "è": 142,
      "é": 143,
      "ê": 144,
      "ë": 145,
      "ì": 146,
      "í": 147,
      "î": 148,
      "ï": 149,
      "ð": 150,
      "ñ": 151,
      "ò": 152,
      "ó": 153,
      "ô": 154,
      "ö": 155,
      "ø": 156,
      "ù": 157,
      "ú": 158,
      "û": 159,
      "ü": 160,
      "ý": 161,
      "þ": 162,
      "Ā": 163,
      "ā": 164,
      "ă": 165,
      "ą": 166,
      "ć": 167,
      "Č": 168,
      "č": 169,
      "Đ": 170,
      "đ": 171,
      "Ē": 172,
      "ē": 173,
      "Ĕ": 174,
      "ĕ": 175,
      "ė": 176,
      "ę": 177,
      "ě": 178,
      "ğ": 179,
      "ħ": 180,
      "ī": 181,
      "İ": 182,
      "ı": 183,
      "Ľ": 184,
      "Ł": 185,
      "ł": 186,
      "ń": 187,
      "Ō": 188,
      "ō": 189,
      "œ": 190,
      "ř": 191,
      "Ś": 192,
      "ś": 193,
      "Ş": 194,
      "ş": 195,
      "Š": 196,
      "š": 197,
      "ţ": 198,
      "ũ": 199,
      "ū": 200,
      "ů": 201,
      "ų": 202,
      "ź": 203,
      "Ż": 204,
      "ż": 205,
      "Ž": 206,
      "ž": 207,
      "ơ": 208,
      "ư": 209,
      "ǎ": 210,
      "ǐ": 211,
      "ǔ": 212,
      "ǜ": 213,
      "Ș": 214,
      "ș": 215,
      "ț": 216,
      "ȯ": 217,
      "ɐ": 218,
      "ɑ": 219,
      "ɒ": 220,
      "ɔ": 221,
      "ə": 222,
      "ɛ": 223,
      "ɜ": 224,
      "ɡ": 225,
      "ɢ": 226,
      "ɪ": 227,
      "ɫ": 228,
      "ɳ": 229,
      "ɽ": 230,
      "ɾ": 231,
      "ʁ": 232,
      "ʃ": 233,
      "ʊ": 234,
      "ʋ": 235,
      "ʒ": 236,
      "ʔ": 237,
      "ʕ": 238,
      "ʲ": 239,
      "ʻ": 240,
      "ʼ": 241,
      "ʾ": 242,
      "ʿ": 243,
      "ˈ": 244,
      "ˌ": 245,
      "ː": 246,
      "́": 247,
      "̃": 248,
      "̍": 249,
      "̥": 250,
      "̯": 251,
      "͍": 252,
      "͘": 253,
      "Α": 254,
      "Δ": 255,
      "Κ": 256,
      "Ν": 257,
      "Π": 258,
      "Τ": 259,
      "Φ": 260,
      "Χ": 261,
      "Ω": 262,
      "ά": 263,
      "έ": 264,
      "ή": 265,
      "ί": 266,
      "α": 267,
      "β": 268,
      "γ": 269,
      "δ": 270,
      "ε": 271,
      "η": 272,
      "θ": 273,
      "ι": 274,
      "κ": 275,
      "λ": 276,
      "μ": 277,
      "ν": 278,
      "ξ": 279,
      "ο": 280,
      "π": 281,
      "ρ": 282,
      "ς": 283,
      "σ": 284,
      "τ": 285,
      "υ": 286,
      "χ": 287,
      "ψ": 288,
      "ω": 289,
      "ό": 290,
      "ύ": 291,
      "ώ": 292,
      "А": 293,
      "Б": 294,
      "В": 295,
      "Г": 296,
      "К": 297,
      "П": 298,
      "Р": 299,
      "С": 300,
      "У": 301,
      "Х": 302,
      "Я": 303,
      "а": 304,
      "в": 305,
      "г": 306,
      "д": 307,
      "е": 308,
      "ж": 309,
      "з": 310,
      "и": 311,
      "й": 312,
      "к": 313,
      "л": 314,
      "м": 315,
      "н": 316,
      "о": 317,
      "п": 318,
      "р": 319,
      "с": 320,
      "т": 321,
      "у": 322,
      "х": 323,
      "ц": 324,
      "ш": 325,
      "ъ": 326,
      "ы": 327,
      "ь": 328,
      "ю": 329,
      "я": 330,
      "є": 331,
      "ֵ": 332,
      "ֶ": 333,
      "ָ": 334,
      "ֹ": 335,
      "ּ": 336,
      "א": 337,
      "ב": 338,
      "ג": 339,
      "ה": 340,
      "ו": 341,
      "ז": 342,
      "ח": 343,
      "י": 344,
      "ל": 345,
      "ם": 346,
      "מ": 347,
      "ן": 348,
      "נ": 349,
      "ס": 350,
      "ף": 351,
      "פ": 352,
      "צ": 353,
      "ר": 354,
      "ש": 355,
      "ת": 356,
      "ء": 357,
      "أ": 358,
      "إ": 359,
      "ا": 360,
      "ب": 361,
      "ة": 362,
      "ت": 363,
      "ث": 364,
      "ج": 365,
      "ح": 366,
      "خ": 367,
      "د": 368,
      "ذ": 369,
      "ر": 370,
      "س": 371,
      "ش": 372,
      "ص": 373,
      "ع": 374,
      "ف": 375,
      "ق": 376,
      "ك": 377,
      "ل": 378,
      "م": 379,
      "ن": 380,
      "ه": 381,
      "و": 382,
      "ي": 383,
      "ڠ": 384,
      "ܐ": 385,
      "ܕ": 386,
      "ܗ": 387,
      "ܝ": 388,
      "ܠ": 389,
      "ܢ": 390,
      "ܬ": 391,
      "ܲ": 392,
      "ܵ": 393,
      "ं": 394,
      "अ": 395,
      "ई": 396,
      "क": 397,
      "ग": 398,
      "ण": 399,
      "त": 400,
      "द": 401,
      "न": 402,
      "प": 403,
      "ब": 404,
      "म": 405,
      "य": 406,
      "र": 407,
      "ल": 408,
      "व": 409,
      "ष": 410,
      "स": 411,
      "ह": 412,
      "ा": 413,
      "ि": 414,
      "ु": 415,
      "ू": 416,
      "े": 417,
      "ै": 418,
      "ो": 419,
      "्": 420,
      "আ": 421,
      "ল": 422,
      "হ": 423,
      "া": 424,
      "্": 425,
      "ਅ": 426,
      "ਲ": 427,
      "ਹ": 428,
      "ਾ": 429,
      "ੁ": 430,
      "ੱ": 431,
      "അ": 432,
      "ള": 433,
      "ഹ": 434,
      "ാ": 435,
      "്": 436,
      "ก": 437,
      "ค": 438,
      "ง": 439,
      "ช": 440,
      "ซ": 441,
      "ญ": 442,
      "ฐ": 443,
      "ณ": 444,
      "ด": 445,
      "ต": 446,
      "น": 447,
      "บ": 448,
      "ป": 449,
      "พ": 450,
      "ภ": 451,
      "ม": 452,
      "ย": 453,
      "ร": 454,
      "ล": 455,
      "ว": 456,
      "ศ": 457,
      "ษ": 458,
      "ส": 459,
      "ห": 460,
      "อ": 461,
      "ฮ": 462,
      "ะ": 463,
      "ั": 464,
      "า": 465,
      "ิ": 466,
      "ี": 467,
      "ึ": 468,
      "เ": 469,
      "แ": 470,
      "ไ": 471,
      "็": 472,
      "่": 473,
      "้": 474,
      "๊": 475,
      "์": 476,
      "ဂ": 477,
      "စ": 478,
      "ဇ": 479,
      "တ": 480,
      "န": 481,
      "ပ": 482,
      "မ": 483,
      "ရ": 484,
      "လ": 485,
      "အ": 486,
      "ာ": 487,
      "ိ": 488,
      "ု": 489,
      "္": 490,
      "်": 491,
      "ြ": 492,
      "ွ": 493,
      "၁": 494,
      "၂": 495,
      "၇": 496,
      "၈": 497,
      "Ⴀ": 498,
      "Ⴂ": 499,
      "Ⴃ": 500,
      "Ⴈ": 501,
      "Ⴌ": 502,
      "Ⴕ": 503,
      "Ⴟ": 504,
      "ა": 505,
      "ბ": 506,
      "გ": 507,
      "დ": 508,
      "ე": 509,
      "ვ": 510,
      "ზ": 511,
      "თ": 512,
      "ი": 513,
      "კ": 514,
      "ლ": 515,
      "მ": 516,
      "ნ": 517,
      "ო": 518,
      "პ": 519,
      "ჟ": 520,
      "რ": 521,
      "ს": 522,
      "ტ": 523,
      "უ": 524,
      "ფ": 525,
      "ქ": 526,
      "ღ": 527,
      "ყ": 528,
      "შ": 529,
      "ჩ": 530,
      "ც": 531,
      "ძ": 532,
      "წ": 533,
      "ჭ": 534,
      "ხ": 535,
      "ჯ": 536,
      "ჰ": 537,
      "ჱ": 538,
      "ჲ": 539,
      "ჳ": 540,
      "ჴ": 541,
      "ჵ": 542,
      "ჶ": 543,
      "ჷ": 544,
      "ჸ": 545,
      "ჹ": 546,
      "ჺ": 547,
      "჻": 548,
      "ᵻ": 549,
      "ḍ": 550,
      "ḏ": 551,
      "Ḥ": 552,
      "ḥ": 553,
      "ḷ": 554,
      "ṃ": 555,
      "ṅ": 556,
      "ṇ": 557,
      "ṛ": 558,
      "ṣ": 559,
      "ṭ": 560,
      "ṯ": 561,
      "ạ": 562,
      "ả": 563,
      "ấ": 564,
      "ầ": 565,
      "ẩ": 566,
      "ậ": 567,
      "ắ": 568,
      "ễ": 569,
      "ệ": 570,
      "ị": 571,
      "ọ": 572,
      "ỏ": 573,
      "ỗ": 574,
      "ộ": 575,
      "ớ": 576,
      "ứ": 577,
      "ử": 578,
      "ữ": 579,
      "ỳ": 580,
      "ỹ": 581,
      "ἀ": 582,
      "ἰ": 583,
      "ὀ": 584,
      "ὁ": 585,
      "ὑ": 586,
      "​": 587,
      "‐": 588,
      "‑": 589,
      "–": 590,
      "—": 591,
      "―": 592,
      "‘": 593,
      "’": 594,
      "“": 595,
      "”": 596,
      "„": 597,
      "†": 598,
      "‡": 599,
      "•": 600,
      "…": 601,
      "′": 602,
      "″": 603,
      "⁄": 604,
      "₣": 605,
      "₤": 606,
      "₩": 607,
      "€": 608,
      "₱": 609,
      "₹": 610,
      "⅓": 611,
      "⅔": 612,
      "→": 613,
      "−": 614,
      "≡": 615,
      "≤": 616,
      "①": 617,
      "☉": 618,
      "☫": 619,
      "♀": 620,
      "♭": 621,
      "♯": 622,
      "⚳": 623,
      "〈": 624,
      "〉": 625,
      "〜": 626,
      "あ": 627,
      "い": 628,
      "う": 629,
      "お": 630,
      "か": 631,
      "が": 632,
      "き": 633,
      "ぎ": 634,
      "く": 635,
      "ぐ": 636,
      "け": 637,
      "こ": 638,
      "ご": 639,
      "さ": 640,
      "し": 641,
      "す": 642,
      "ず": 643,
      "ぜ": 644,
      "た": 645,
      "だ": 646,
      "ち": 647,
      "っ": 648,
      "つ": 649,
      "と": 650,
      "な": 651,
      "に": 652,
      "の": 653,
      "は": 654,
      "ば": 655,
      "ひ": 656,
      "ふ": 657,
      "ほ": 658,
      "ま": 659,
      "み": 660,
      "め": 661,
      "も": 662,
      "ゃ": 663,
      "ゆ": 664,
      "ょ": 665,
      "ら": 666,
      "り": 667,
      "る": 668,
      "れ": 669,
      "わ": 670,
      "を": 671,
      "ん": 672,
      "ァ": 673,
      "ア": 674,
      "ィ": 675,
      "イ": 676,
      "ゥ": 677,
      "ェ": 678,
      "エ": 679,
      "ォ": 680,
      "オ": 681,
      "カ": 682,
      "ガ": 683,
      "キ": 684,
      "ク": 685,
      "グ": 686,
      "ゲ": 687,
      "コ": 688,
      "サ": 689,
      "シ": 690,
      "ジ": 691,
      "ス": 692,
      "ズ": 693,
      "セ": 694,
      "タ": 695,
      "ダ": 696,
      "チ": 697,
      "ッ": 698,
      "ツ": 699,
      "テ": 700,
      "デ": 701,
      "ト": 702,
      "ド": 703,
      "ナ": 704,
      "ニ": 705,
      "ネ": 706,
      "ノ": 707,
      "ハ": 708,
      "バ": 709,
      "パ": 710,
      "フ": 711,
      "ブ": 712,
      "プ": 713,
      "ヘ": 714,
      "ベ": 715,
      "マ": 716,
      "ミ": 717,
      "ム": 718,
      "モ": 719,
      "ャ": 720,
      "ュ": 721,
      "ョ": 722,
      "ラ": 723,
      "リ": 724,
      "ル": 725,
      "レ": 726,
      "ロ": 727,
      "ン": 728,
      "ヴ": 729,
      "・": 730,
      "ー": 731,
      "一": 732,
      "七": 733,
      "下": 734,
      "世": 735,
      "丙": 736,
      "中": 737,
      "为": 738,
      "主": 739,
      "乃": 740,
      "之": 741,
      "乙": 742,
      "九": 743,
      "二": 744,
      "云": 745,
      "人": 746,
      "今": 747,
      "付": 748,
      "伊": 749,
      "似": 750,
      "作": 751,
      "侗": 752,
      "依": 753,
      "信": 754,
      "傳": 755,
      "儚": 756,
      "充": 757,
      "光": 758,
      "全": 759,
      "八": 760,
      "六": 761,
      "兵": 762,
      "其": 763,
      "具": 764,
      "円": 765,
      "再": 766,
      "出": 767,
      "判": 768,
      "利": 769,
      "制": 770,
      "刷": 771,
      "前": 772,
      "剛": 773,
      "劇": 774,
      "劉": 775,
      "助": 776,
      "動": 777,
      "勢": 778,
      "包": 779,
      "化": 780,
      "北": 781,
      "十": 782,
      "千": 783,
      "华": 784,
      "南": 785,
      "印": 786,
      "厂": 787,
      "去": 788,
      "古": 789,
      "可": 790,
      "台": 791,
      "史": 792,
      "同": 793,
      "名": 794,
      "君": 795,
      "吳": 796,
      "周": 797,
      "命": 798,
      "和": 799,
      "咲": 800,
      "唐": 801,
      "善": 802,
      "四": 803,
      "國": 804,
      "園": 805,
      "圣": 806,
      "在": 807,
      "坂": 808,
      "型": 809,
      "堂": 810,
      "堤": 811,
      "場": 812,
      "塘": 813,
      "士": 814,
      "夕": 815,
      "大": 816,
      "天": 817,
      "夫": 818,
      "奈": 819,
      "套": 820,
      "女": 821,
      "妙": 822,
      "姚": 823,
      "子": 824,
      "孟": 825,
      "学": 826,
      "學": 827,
      "守": 828,
      "安": 829,
      "宋": 830,
      "完": 831,
      "宗": 832,
      "定": 833,
      "宝": 834,
      "宫": 835,
      "寝": 836,
      "寶": 837,
      "寺": 838,
      "小": 839,
      "少": 840,
      "尾": 841,
      "山": 842,
      "岳": 843,
      "川": 844,
      "州": 845,
      "巳": 846,
      "市": 847,
      "師": 848,
      "平": 849,
      "广": 850,
      "庆": 851,
      "府": 852,
      "座": 853,
      "廬": 854,
      "建": 855,
      "开": 856,
      "式": 857,
      "張": 858,
      "彌": 859,
      "彩": 860,
      "影": 861,
      "彼": 862,
      "征": 863,
      "律": 864,
      "後": 865,
      "御": 866,
      "微": 867,
      "德": 868,
      "心": 869,
      "必": 870,
      "忠": 871,
      "思": 872,
      "愛": 873,
      "憑": 874,
      "憶": 875,
      "應": 876,
      "懷": 877,
      "成": 878,
      "战": 879,
      "戦": 880,
      "所": 881,
      "扈": 882,
      "技": 883,
      "拉": 884,
      "拱": 885,
      "拳": 886,
      "挑": 887,
      "揺": 888,
      "攻": 889,
      "放": 890,
      "政": 891,
      "散": 892,
      "文": 893,
      "斯": 894,
      "方": 895,
      "日": 896,
      "旦": 897,
      "旭": 898,
      "昌": 899,
      "明": 900,
      "星": 901,
      "春": 902,
      "晋": 903,
      "景": 904,
      "智": 905,
      "曦": 906,
      "書": 907,
      "月": 908,
      "望": 909,
      "朝": 910,
      "未": 911,
      "本": 912,
      "李": 913,
      "村": 914,
      "杜": 915,
      "束": 916,
      "来": 917,
      "東": 918,
      "板": 919,
      "林": 920,
      "果": 921,
      "桜": 922,
      "梶": 923,
      "棘": 924,
      "椎": 925,
      "楊": 926,
      "楚": 927,
      "榮": 928,
      "樸": 929,
      "橘": 930,
      "機": 931,
      "正": 932,
      "殻": 933,
      "殿": 934,
      "毅": 935,
      "母": 936,
      "民": 937,
      "水": 938,
      "汉": 939,
      "沂": 940,
      "沙": 941,
      "河": 942,
      "法": 943,
      "泗": 944,
      "波": 945,
      "泣": 946,
      "洪": 947,
      "浮": 948,
      "淹": 949,
      "清": 950,
      "湯": 951,
      "漢": 952,
      "澄": 953,
      "澤": 954,
      "火": 955,
      "灯": 956,
      "灵": 957,
      "灼": 958,
      "無": 959,
      "焼": 960,
      "熱": 961,
      "牌": 962,
      "物": 963,
      "狐": 964,
      "狸": 965,
      "玄": 966,
      "玉": 967,
      "王": 968,
      "玩": 969,
      "珂": 970,
      "珙": 971,
      "球": 972,
      "理": 973,
      "琦": 974,
      "琪": 975,
      "瓊": 976,
      "生": 977,
      "甫": 978,
      "田": 979,
      "甲": 980,
      "畢": 981,
      "番": 982,
      "畫": 983,
      "疆": 984,
      "病": 985,
      "瘡": 986,
      "白": 987,
      "皇": 988,
      "皮": 989,
      "真": 990,
      "砲": 991,
      "礮": 992,
      "祈": 993,
      "神": 994,
      "祠": 995,
      "秋": 996,
      "秘": 997,
      "稽": 998,
      "空": 999,
      "立": 1000,
      "竹": 1001,
      "箋": 1002,
      "籠": 1003,
      "精": 1004,
      "紀": 1005,
      "約": 1006,
      "統": 1007,
      "絵": 1008,
      "緬": 1009,
      "織": 1010,
      "繹": 1011,
      "義": 1012,
      "翠": 1013,
      "者": 1014,
      "耕": 1015,
      "聖": 1016,
      "肖": 1017,
      "背": 1018,
      "胡": 1019,
      "膀": 1020,
      "臂": 1021,
      "致": 1022,
      "興": 1023,
      "舍": 1024,
      "艦": 1025,
      "良": 1026,
      "芥": 1027,
      "花": 1028,
      "芳": 1029,
      "芽": 1030,
      "若": 1031,
      "英": 1032,
      "萬": 1033,
      "著": 1034,
      "藕": 1035,
      "藥": 1036,
      "蘄": 1037,
      "蘇": 1038,
      "蘿": 1039,
      "處": 1040,
      "蝴": 1041,
      "蝶": 1042,
      "行": 1043,
      "術": 1044,
      "衛": 1045,
      "表": 1046,
      "裁": 1047,
      "裝": 1048,
      "要": 1049,
      "規": 1050,
      "覺": 1051,
      "观": 1052,
      "解": 1053,
      "言": 1054,
      "記": 1055,
      "詔": 1056,
      "詩": 1057,
      "誓": 1058,
      "誡": 1059,
      "誰": 1060,
      "謎": 1061,
      "譌": 1062,
      "譚": 1063,
      "譜": 1064,
      "變": 1065,
      "许": 1066,
      "谭": 1067,
      "豪": 1068,
      "豫": 1069,
      "費": 1070,
      "贈": 1071,
      "贵": 1072,
      "赤": 1073,
      "趙": 1074,
      "足": 1075,
      "跡": 1076,
      "軒": 1077,
      "転": 1078,
      "辛": 1079,
      "辨": 1080,
      "迪": 1081,
      "逆": 1082,
      "遇": 1083,
      "運": 1084,
      "過": 1085,
      "道": 1086,
      "遠": 1087,
      "選": 1088,
      "邦": 1089,
      "邱": 1090,
      "邵": 1091,
      "部": 1092,
      "郭": 1093,
      "都": 1094,
      "酈": 1095,
      "里": 1096,
      "野": 1097,
      "金": 1098,
      "鉄": 1099,
      "銃": 1100,
      "鋼": 1101,
      "錄": 1102,
      "錡": 1103,
      "錦": 1104,
      "鍵": 1105,
      "鐵": 1106,
      "钱": 1107,
      "铁": 1108,
      "關": 1109,
      "防": 1110,
      "阿": 1111,
      "陈": 1112,
      "陳": 1113,
      "陽": 1114,
      "隊": 1115,
      "階": 1116,
      "集": 1117,
      "雞": 1118,
      "雪": 1119,
      "雲": 1120,
      "霖": 1121,
      "霹": 1122,
      "靂": 1123,
      "韓": 1124,
      "頒": 1125,
      "願": 1126,
      "類": 1127,
      "顯": 1128,
      "颜": 1129,
      "饾": 1130,
      "駢": 1131,
      "驗": 1132,
      "马": 1133,
      "體": 1134,
      "高": 1135,
      "魯": 1136,
      "齋": 1137,
      "龍": 1138,
      "대": 1139,
      "독": 1140,
      "라": 1141,
      "립": 1142,
      "병": 1143,
      "보": 1144,
      "부": 1145,
      "알": 1146,
      "연": 1147,
      "제": 1148,
      "ﷲ": 1149,
      "ﻋ": 1150,
      "﻿": 1151,
      "／": 1152,
      "３": 1153,
      "～": 1154,
      "�": 1155,
      "th": 1156,
      "in": 1157,
      "the": 1158,
      "an": 1159,
      "er": 1160,
      "on": 1161,
      "ed": 1162,
      "re": 1163,
      "at": 1164,
      "en": 1165,
      "or": 1166,
      "st": 1167,
      "al": 1168,
      "ar": 1169,
      "and": 1170,
      "of": 1171,
      "as": 1172,
      "es": 1173,
      "ing": 1174,
      "is": 1175,
      "to": 1176,
      "it": 1177,
      "ou": 1178,
      "ic": 1179,
      "ion": 1180,
      "he": 1181,
      "ro": 1182,
      "le": 1183,
      "ac": 1184,
      "il": 1185,
      "ent": 1186,
      "ad": 1187,
      "se": 1188,
      "am": 1189,
      "om": 1190,
      "ly": 1191,
      "be": 1192,
      "ch": 1193,
      "ur": 1194,
      "was": 1195,
      "for": 1196,
      "de": 1197,
      "ve": 1198,
      "The": 1199,
      "ol": 1200,
      "ir": 1201,
      "im": 1202,
      "ig": 1203,
      "-@": 1204,
      "@-@": 1205,
      "ver": 1206,
      "ow": 1207,
      "wh": 1208,
      "un": 1209,
      "ter": 1210,
      "wi": 1211,
      "ce": 1212,
      "ay": 1213,
      "con": 1214,
      "ation": 1215,
      "ct": 1216,
      "ag": 1217,
      "with": 1218,
      "that": 1219,
      "te": 1220,
      "id": 1221,
      "by": 1222,
      "us": 1223,
      "ul": 1224,
      "el": 1225,
      "ri": 1226,
      "ot": 1227,
      "ap": 1228,
      "res": 1229,
      "ere": 1230,
      "et": 1231,
      "19": 1232,
      "op": 1233,
      "ain": 1234,
      "com": 1235,
      "rom": 1236,
      "pl": 1237,
      "ut": 1238,
      "oun": 1239,
      "um": 1240,
      "00": 1241,
      "all": 1242,
      "ers": 1243,
      "ab": 1244,
      "his": 1245,
      "mo": 1246,
      "ist": 1247,
      "su": 1248,
      "are": 1249,
      "from": 1250,
      "ther": 1251,
      "pe": 1252,
      "pro": 1253,
      "sh": 1254,
      "cl": 1255,
      "In": 1256,
      "ne": 1257,
      "tr": 1258,
      "ate": 1259,
      "li": 1260,
      "os": 1261,
      "em": 1262,
      "art": 1263,
      "di": 1264,
      "were": 1265,
      "igh": 1266,
      "ong": 1267,
      "ak": 1268,
      "est": 1269,
      "ex": 1270,
      "ill": 1271,
      "ies": 1272,
      "oc": 1273,
      "ich": 1274,
      "ld": 1275,
      "ast": 1276,
      "ber": 1277,
      "ard": 1278,
      "od": 1279,
      "ity": 1280,
      "ish": 1281,
      "gh": 1282,
      "ated": 1283,
      "per": 1284,
      "ant": 1285,
      "ort": 1286,
      "qu": 1287,
      "ment": 1288,
      "si": 1289,
      "man": 1290,
      "out": 1291,
      "ame": 1292,
      "als": 1293,
      "fe": 1294,
      "ack": 1295,
      "had": 1296,
      "ess": 1297,
      "end": 1298,
      "av": 1299,
      "one": 1300,
      "over": 1301,
      "ear": 1302,
      "our": 1303,
      "ough": 1304,
      "tw": 1305,
      "which": 1306,
      "ge": 1307,
      "der": 1308,
      "iv": 1309,
      "str": 1310,
      "af": 1311,
      "gr": 1312,
      "ound": 1313,
      "ive": 1314,
      "not": 1315,
      "ine": 1316,
      "ave": 1317,
      "ip": 1318,
      "but": 1319,
      "rit": 1320,
      "Ch": 1321,
      "ally": 1322,
      "its": 1323,
      "act": 1324,
      "ass": 1325,
      "ian": 1326,
      "ight": 1327,
      "ary": 1328,
      "vi": 1329,
      "ud": 1330,
      "ore": 1331,
      "if": 1332,
      "own": 1333,
      "fir": 1334,
      "du": 1335,
      "200": 1336,
      "pr": 1337,
      "St": 1338,
      "20": 1339,
      "wor": 1340,
      "ach": 1341,
      "ous": 1342,
      "port": 1343,
      "up": 1344,
      "ew": 1345,
      "po": 1346,
      "land": 1347,
      "her": 1348,
      "ev": 1349,
      "ep": 1350,
      "cor": 1351,
      "lo": 1352,
      "bo": 1353,
      "their": 1354,
      "aw": 1355,
      "comp": 1356,
      "au": 1357,
      "att": 1358,
      "ould": 1359,
      "ical": 1360,
      "age": 1361,
      "ia": 1362,
      "first": 1363,
      "bl": 1364,
      "ction": 1365,
      "ition": 1366,
      "low": 1367,
      "also": 1368,
      "ign": 1369,
      "ll": 1370,
      "other": 1371,
      "tim": 1372,
      "form": 1373,
      "int": 1374,
      "ke": 1375,
      "He": 1376,
      "ater": 1377,
      "pt": 1378,
      "has": 1379,
      "ure": 1380,
      "ial": 1381,
      "ser": 1382,
      "have": 1383,
      "18": 1384,
      "play": 1385,
      "ome": 1386,
      "who": 1387,
      "part": 1388,
      "ran": 1389,
      "cre": 1390,
      "been": 1391,
      "two": 1392,
      ".@": 1393,
      "@.@": 1394,
      "ok": 1395,
      "gu": 1396,
      "uring": 1397,
      "ence": 1398,
      "cont": 1399,
      "ree": 1400,
      "off": 1401,
      "pres": 1402,
      "des": 1403,
      "ile": 1404,
      "dis": 1405,
      "me": 1406,
      "cent": 1407,
      "pre": 1408,
      "ans": 1409,
      "this": 1410,
      "br": 1411,
      "It": 1412,
      "pos": 1413,
      "mer": 1414,
      "ade": 1415,
      "ult": 1416,
      "we": 1417,
      "Th": 1418,
      "An": 1419,
      "ory": 1420,
      "after": 1421,
      "they": 1422,
      "ite": 1423,
      "201": 1424,
      "ren": 1425,
      "co": 1426,
      "year": 1427,
      "mon": 1428,
      ",@": 1429,
      "@,@": 1430,
      "ell": 1431,
      "fin": 1432,
      "sp": 1433,
      "incl": 1434,
      "ved": 1435,
      "ations": 1436,
      "ace": 1437,
      "sc": 1438,
      "urn": 1439,
      "ice": 1440,
      "cord": 1441,
      "able": 1442,
      "ue": 1443,
      "work": 1444,
      "ph": 1445,
      "ra": 1446,
      "ces": 1447,
      "Un": 1448,
      "ever": 1449,
      "ship": 1450,
      "iz": 1451,
      "tem": 1452,
      "ff": 1453,
      "sion": 1454,
      "ric": 1455,
      "ark": 1456,
      "time": 1457,
      "into": 1458,
      "no": 1459,
      "Au": 1460,
      "ance": 1461,
      "ced": 1462,
      "air": 1463,
      "vel": 1464,
      "ount": 1465,
      "spe": 1466,
      "more": 1467,
      "any": 1468,
      "inter": 1469,
      "og": 1470,
      "most": 1471,
      "amp": 1472,
      "would": 1473,
      "him": 1474,
      "main": 1475,
      "used": 1476,
      "red": 1477,
      "ited": 1478,
      "ire": 1479,
      "cond": 1480,
      "ason": 1481,
      "cted": 1482,
      "ang": 1483,
      "Al": 1484,
      "fore": 1485,
      "she": 1486,
      "ann": 1487,
      "fl": 1488,
      "bec": 1489,
      "old": 1490,
      "way": 1491,
      "ased": 1492,
      "includ": 1493,
      "ind": 1494,
      "ates": 1495,
      "ath": 1496,
      "Ar": 1497,
      "ings": 1498,
      "ail": 1499,
      "ry": 1500,
      "ie": 1501,
      "ict": 1502,
      "rough": 1503,
      "though": 1504,
      "bu": 1505,
      "vis": 1506,
      "comm": 1507,
      "ten": 1508,
      "ick": 1509,
      "gan": 1510,
      "ase": 1511,
      "arch": 1512,
      "ret": 1513,
      "new": 1514,
      "ions": 1515,
      "during": 1516,
      "under": 1517,
      "ob": 1518,
      "min": 1519,
      "when": 1520,
      "ents": 1521,
      "reg": 1522,
      "ake": 1523,
      "ward": 1524,
      "col": 1525,
      "nor": 1526,
      "day": 1527,
      "ilm": 1528,
      "les": 1529,
      "ble": 1530,
      "outh": 1531,
      "ose": 1532,
      "row": 1533,
      "ild": 1534,
      "son": 1535,
      "ubl": 1536,
      "them": 1537,
      "ors": 1538,
      "song": 1539,
      "only": 1540,
      "kn": 1541,
      "again": 1542,
      "cess": 1543,
      "cr": 1544,
      "Re": 1545,
      "ts": 1546,
      "ollow": 1547,
      "een": 1548,
      "ood": 1549,
      "On": 1550,
      "Com": 1551,
      "ron": 1552,
      "lar": 1553,
      "ted": 1554,
      "gen": 1555,
      "199": 1556,
      "sy": 1557,
      "oy": 1558,
      "game": 1559,
      "about": 1560,
      "three": 1561,
      "ational": 1562,
      "stru": 1563,
      "while": 1564,
      "some": 1565,
      "than": 1566,
      "ern": 1567,
      "En": 1568,
      "season": 1569,
      "ck": 1570,
      "num": 1571,
      "so": 1572,
      "ful": 1573,
      "ty": 1574,
      "through": 1575,
      "iver": 1576,
      "where": 1577,
      "film": 1578,
      "can": 1579,
      "tween": 1580,
      "between": 1581,
      "ating": 1582,
      "char": 1583,
      "Amer": 1584,
      "Wh": 1585,
      "Americ": 1586,
      "10": 1587,
      "ton": 1588,
      "dr": 1589,
      "ered": 1590,
      "later": 1591,
      "writ": 1592,
      "produ": 1593,
      "ied": 1594,
      "New": 1595,
      "sing": 1596,
      "Af": 1597,
      "led": 1598,
      "cons": 1599,
      "ular": 1600,
      "ust": 1601,
      "De": 1602,
      "sub": 1603,
      "As": 1604,
      "loc": 1605,
      "record": 1606,
      "view": 1607,
      "aid": 1608,
      "made": 1609,
      "rop": 1610,
      "rele": 1611,
      "ven": 1612,
      "ames": 1613,
      "my": 1614,
      "ele": 1615,
      "spec": 1616,
      "set": 1617,
      "mi": 1618,
      "000": 1619,
      "then": 1620,
      "cur": 1621,
      "high": 1622,
      "Le": 1623,
      "ished": 1624,
      "cap": 1625,
      "follow": 1626,
      "do": 1627,
      "sel": 1628,
      "rel": 1629,
      "ury": 1630,
      "four": 1631,
      "ma": 1632,
      "call": 1633,
      "ters": 1634,
      "sur": 1635,
      "second": 1636,
      "back": 1637,
      "appe": 1638,
      "ef": 1639,
      "At": 1640,
      "ci": 1641,
      "ines": 1642,
      "No": 1643,
      "12": 1644,
      "med": 1645,
      "well": 1646,
      "sup": 1647,
      "go": 1648,
      "bum": 1649,
      "Jo": 1650,
      "ual": 1651,
      "side": 1652,
      "before": 1653,
      "ari": 1654,
      "Nor": 1655,
      "publ": 1656,
      "such": 1657,
      "ros": 1658,
      "16": 1659,
      "je": 1660,
      "This": 1661,
      "ics": 1662,
      "ins": 1663,
      "ub": 1664,
      "Sh": 1665,
      "fer": 1666,
      "arri": 1667,
      "ily": 1668,
      "15": 1669,
      "iel": 1670,
      "Brit": 1671,
      "there": 1672,
      "being": 1673,
      "urch": 1674,
      "ning": 1675,
      "cri": 1676,
      "add": 1677,
      "many": 1678,
      "..": 1679,
      "ond": 1680,
      "ks": 1681,
      "use": 1682,
      "ative": 1683,
      "ific": 1684,
      "17": 1685,
      "mus": 1686,
      "number": 1687,
      "mber": 1688,
      "ars": 1689,
      "owever": 1690,
      "known": 1691,
      "atch": 1692,
      "years": 1693,
      "ens": 1694,
      "ft": 1695,
      "par": 1696,
      "sever": 1697,
      "album": 1698,
      "ince": 1699,
      "found": 1700,
      "velop": 1701,
      "against": 1702,
      "ale": 1703,
      "hel": 1704,
      "head": 1705,
      "like": 1706,
      "long": 1707,
      "ane": 1708,
      "reat": 1709,
      "unt": 1710,
      "down": 1711,
      "uary": 1712,
      "oup": 1713,
      "ause": 1714,
      "point": 1715,
      "eng": 1716,
      "both": 1717,
      "Be": 1718,
      "series": 1719,
      "ities": 1720,
      "cho": 1721,
      "Eng": 1722,
      "including": 1723,
      "ped": 1724,
      "line": 1725,
      "ide": 1726,
      "became": 1727,
      "dire": 1728,
      "team": 1729,
      "ments": 1730,
      "trans": 1731,
      "feat": 1732,
      "olog": 1733,
      "pop": 1734,
      "az": 1735,
      "30": 1736,
      "ird": 1737,
      "cover": 1738,
      "Con": 1739,
      "ident": 1740,
      "igin": 1741,
      "cept": 1742,
      "ise": 1743,
      "United": 1744,
      "198": 1745,
      "west": 1746,
      "Br": 1747,
      "war": 1748,
      "epis": 1749,
      "mem": 1750,
      "contin": 1751,
      "ese": 1752,
      "194": 1753,
      "Ro": 1754,
      "ode": 1755,
      "ost": 1756,
      "hn": 1757,
      "stral": 1758,
      "ock": 1759,
      "uch": 1760,
      "oper": 1761,
      "mill": 1762,
      "charac": 1763,
      "After": 1764,
      "tain": 1765,
      "cer": 1766,
      "ures": 1767,
      "stor": 1768,
      "develop": 1769,
      "several": 1770,
      "try": 1771,
      "diff": 1772,
      "ised": 1773,
      "road": 1774,
      "ste": 1775,
      "eral": 1776,
      "ield": 1777,
      "suc": 1778,
      "II": 1779,
      "appear": 1780,
      "Austral": 1781,
      "cy": 1782,
      "peri": 1783,
      "American": 1784,
      "hist": 1785,
      "pol": 1786,
      "bed": 1787,
      "descri": 1788,
      "city": 1789,
      "lead": 1790,
      "show": 1791,
      "comple": 1792,
      "ord": 1793,
      "mis": 1794,
      "une": 1795,
      "serv": 1796,
      "began": 1797,
      "hy": 1798,
      "ball": 1799,
      "origin": 1800,
      "cle": 1801,
      "mil": 1802,
      "along": 1803,
      "Se": 1804,
      "British": 1805,
      "sign": 1806,
      "May": 1807,
      "Wor": 1808,
      "called": 1809,
      "nam": 1810,
      "did": 1811,
      "met": 1812,
      "Ger": 1813,
      "remain": 1814,
      "197": 1815,
      "John": 1816,
      "run": 1817,
      "century": 1818,
      "dam": 1819,
      "196": 1820,
      "sm": 1821,
      "ended": 1822,
      "early": 1823,
      "could": 1824,
      "ived": 1825,
      "near": 1826,
      "ually": 1827,
      "Mar": 1828,
      "War": 1829,
      "ash": 1830,
      "US": 1831,
      "may": 1832,
      "ah": 1833,
      "gust": 1834,
      "io": 1835,
      "She": 1836,
      "For": 1837,
      "large": 1838,
      "leg": 1839,
      "ject": 1840,
      "ms": 1841,
      "present": 1842,
      "por": 1843,
      "ley": 1844,
      "these": 1845,
      "tri": 1846,
      "pass": 1847,
      "plac": 1848,
      "aking": 1849,
      "crit": 1850,
      "ross": 1851,
      "said": 1852,
      "km": 1853,
      "vol": 1854,
      "tow": 1855,
      "14": 1856,
      "ople": 1857,
      "erson": 1858,
      "self": 1859,
      "rece": 1860,
      "lan": 1861,
      "Car": 1862,
      "episode": 1863,
      "design": 1864,
      "ib": 1865,
      "attack": 1866,
      "vid": 1867,
      "13": 1868,
      "bor": 1869,
      "dist": 1870,
      "now": 1871,
      "dec": 1872,
      "ith": 1873,
      "ru": 1874,
      "men": 1875,
      "gg": 1876,
      "until": 1877,
      "return": 1878,
      "xt": 1879,
      "state": 1880,
      "Is": 1881,
      "open": 1882,
      "start": 1883,
      "dep": 1884,
      "ress": 1885,
      "overn": 1886,
      "ized": 1887,
      "Sep": 1888,
      "Man": 1889,
      "50": 1890,
      "jor": 1891,
      "stem": 1892,
      "thern": 1893,
      "itt": 1894,
      "ists": 1895,
      "sive": 1896,
      "ca": 1897,
      "area": 1898,
      "Gr": 1899,
      "August": 1900,
      "success": 1901,
      "ple": 1902,
      "car": 1903,
      "offic": 1904,
      "Col": 1905,
      "east": 1906,
      "fam": 1907,
      "ves": 1908,
      "tember": 1909,
      "coun": 1910,
      "ower": 1911,
      "light": 1912,
      "music": 1913,
      "September": 1914,
      "ision": 1915,
      "group": 1916,
      "rist": 1917,
      "Ju": 1918,
      "formed": 1919,
      "north": 1920,
      "gun": 1921,
      "released": 1922,
      "continu": 1923,
      "North": 1924,
      "let": 1925,
      "position": 1926,
      "ek": 1927,
      "less": 1928,
      "They": 1929,
      "grap": 1930,
      "same": 1931,
      "around": 1932,
      "rest": 1933,
      "def": 1934,
      "because": 1935,
      "support": 1936,
      "million": 1937,
      "oci": 1938,
      "ather": 1939,
      "sim": 1940,
      "each": 1941,
      "oot": 1942,
      "batt": 1943,
      "national": 1944,
      "fect": 1945,
      "la": 1946,
      "six": 1947,
      "gy": 1948,
      "chool": 1949,
      "ious": 1950,
      "vide": 1951,
      "people": 1952,
      "come": 1953,
      "val": 1954,
      "ouse": 1955,
      "small": 1956,
      "ured": 1957,
      "World": 1958,
      "che": 1959,
      "win": 1960,
      "life": 1961,
      "following": 1962,
      "bers": 1963,
      "top": 1964,
      "enn": 1965,
      "king": 1966,
      "ivers": 1967,
      "tal": 1968,
      "mark": 1969,
      "vision": 1970,
      "sol": 1971,
      "requ": 1972,
      "consid": 1973,
      "However": 1974,
      "ctor": 1975,
      "ground": 1976,
      "get": 1977,
      "vent": 1978,
      "11": 1979,
      "Pl": 1980,
      "ae": 1981,
      "June": 1982,
      "overnment": 1983,
      "atter": 1984,
      "cour": 1985,
      "field": 1986,
      "Gu": 1987,
      "result": 1988,
      "rote": 1989,
      "Fe": 1990,
      "ropical": 1991,
      "cut": 1992,
      "pon": 1993,
      "aim": 1994,
      "South": 1995,
      "ving": 1996,
      "contro": 1997,
      "Eu": 1998,
      "character": 1999,
      "five": 2000,
      "report": 2001,
      "Jan": 2002,
      "order": 2003,
      "reach": 2004,
      "ism": 2005,
      "prote": 2006,
      "sou": 2007,
      "book": 2008,
      "0s": 2009,
      "Oc": 2010,
      "south": 2011,
      "track": 2012,
      "prom": 2013,
      "ank": 2014,
      "took": 2015,
      "ilt": 2016,
      "Ste": 2017,
      "what": 2018,
      "very": 2019,
      "oss": 2020,
      "dom": 2021,
      "played": 2022,
      "ina": 2023,
      "ime": 2024,
      "aving": 2025,
      "ner": 2026,
      "ural": 2027,
      "since": 2028,
      "ately": 2029,
      "25": 2030,
      "Bo": 2031,
      "kill": 2032,
      "ined": 2033,
      "aged": 2034,
      "Bl": 2035,
      "ls": 2036,
      "ling": 2037,
      "avy": 2038,
      "cording": 2039,
      "will": 2040,
      "allow": 2041,
      "Cl": 2042,
      "States": 2043,
      "place": 2044,
      "cast": 2045,
      "name": 2046,
      "tit": 2047,
      "ired": 2048,
      "und": 2049,
      "ained": 2050,
      "stand": 2051,
      "appro": 2052,
      "Fran": 2053,
      "arm": 2054,
      "public": 2055,
      "Wil": 2056,
      "late": 2057,
      "Me": 2058,
      "care": 2059,
      "lish": 2060,
      "count": 2061,
      "major": 2062,
      "town": 2063,
      "ham": 2064,
      "ague": 2065,
      "bre": 2066,
      "wards": 2067,
      "Ac": 2068,
      "organ": 2069,
      "tober": 2070,
      "October": 2071,
      "band": 2072,
      "ales": 2073,
      "build": 2074,
      "moved": 2075,
      "ody": 2076,
      "ships": 2077,
      "even": 2078,
      "just": 2079,
      "ik": 2080,
      "ility": 2081,
      "final": 2082,
      "received": 2083,
      "won": 2084,
      "sequ": 2085,
      "partic": 2086,
      "July": 2087,
      "ages": 2088,
      "ians": 2089,
      "aft": 2090,
      "ats": 2091,
      "last": 2092,
      "named": 2093,
      "ional": 2094,
      "ains": 2095,
      "read": 2096,
      "ork": 2097,
      "Her": 2098,
      "constru": 2099,
      "German": 2100,
      "vious": 2101,
      "ets": 2102,
      "system": 2103,
      "giv": 2104,
      "match": 2105,
      "ants": 2106,
      "list": 2107,
      "built": 2108,
      "vari": 2109,
      "pen": 2110,
      "gre": 2111,
      "ards": 2112,
      "ys": 2113,
      "January": 2114,
      "ude": 2115,
      "ting": 2116,
      "incre": 2117,
      "due": 2118,
      "ery": 2119,
      "fur": 2120,
      "Christ": 2121,
      "oman": 2122,
      "tempt": 2123,
      "All": 2124,
      "ler": 2125,
      "pri": 2126,
      "ony": 2127,
      "Mc": 2128,
      "world": 2129,
      "Sp": 2130,
      "gin": 2131,
      "included": 2132,
      "power": 2133,
      "star": 2134,
      "ask": 2135,
      "described": 2136,
      "water": 2137,
      "hal": 2138,
      "ink": 2139,
      "During": 2140,
      "ris": 2141,
      "York": 2142,
      "stri": 2143,
      "liam": 2144,
      "aur": 2145,
      "child": 2146,
      "species": 2147,
      "King": 2148,
      "Mon": 2149,
      "pit": 2150,
      "ute": 2151,
      "person": 2152,
      "much": 2153,
      "government": 2154,
      "hand": 2155,
      "Apr": 2156,
      "apan": 2157,
      "single": 2158,
      "April": 2159,
      "Par": 2160,
      "camp": 2161,
      "Japan": 2162,
      "dest": 2163,
      "death": 2164,
      "Can": 2165,
      "sed": 2166,
      "turn": 2167,
      "attempt": 2168,
      "cas": 2169,
      "rench": 2170,
      "command": 2171,
      "vember": 2172,
      "event": 2173,
      "November": 2174,
      "ax": 2175,
      "another": 2176,
      "ons": 2177,
      "Ph": 2178,
      "fall": 2179,
      "sent": 2180,
      "ai": 2181,
      "ement": 2182,
      "West": 2183,
      "udi": 2184,
      "jo": 2185,
      "wrote": 2186,
      "left": 2187,
      "although": 2188,
      "within": 2189,
      "aff": 2190,
      "ness": 2191,
      "oute": 2192,
      "based": 2193,
      "ops": 2194,
      "roy": 2195,
      "claim": 2196,
      "ically": 2197,
      "adv": 2198,
      "version": 2199,
      "...": 2200,
      "Co": 2201,
      "March": 2202,
      "right": 2203,
      "ature": 2204,
      "short": 2205,
      "idge": 2206,
      "differ": 2207,
      "ster": 2208,
      "akes": 2209,
      "storm": 2210,
      "gener": 2211,
      "home": 2212,
      "estab": 2213,
      "Batt": 2214,
      "itary": 2215,
      "ush": 2216,
      "Dece": 2217,
      "third": 2218,
      "December": 2219,
      "Euro": 2220,
      "ially": 2221,
      "195": 2222,
      "previous": 2223,
      "mb": 2224,
      "ref": 2225,
      "den": 2226,
      "beli": 2227,
      "ulation": 2228,
      "action": 2229,
      "By": 2230,
      "National": 2231,
      "mar": 2232,
      "chan": 2233,
      "hum": 2234,
      "pect": 2235,
      "ought": 2236,
      "Tr": 2237,
      "Div": 2238,
      "school": 2239,
      "Indi": 2240,
      "ix": 2241,
      "Ge": 2242,
      "expl": 2243,
      "24": 2244,
      "Pr": 2245,
      "River": 2246,
      "que": 2247,
      "rown": 2248,
      "period": 2249,
      "Pro": 2250,
      "games": 2251,
      "issu": 2252,
      "using": 2253,
      "Sc": 2254,
      "There": 2255,
      "ral": 2256,
      "flu": 2257,
      "Gen": 2258,
      "wind": 2259,
      "ung": 2260,
      "City": 2261,
      "ove": 2262,
      "We": 2263,
      "review": 2264,
      "ilar": 2265,
      "French": 2266,
      "thing": 2267,
      "best": 2268,
      "193": 2269,
      "ched": 2270,
      "family": 2271,
      "Ad": 2272,
      "forman": 2273,
      "ium": 2274,
      "make": 2275,
      "those": 2276,
      "bro": 2277,
      "placed": 2278,
      "ently": 2279,
      "Europe": 2280,
      "oung": 2281,
      "month": 2282,
      "class": 2283,
      "ext": 2284,
      "His": 2285,
      "When": 2286,
      "26": 2287,
      "fan": 2288,
      "England": 2289,
      "fac": 2290,
      "stud": 2291,
      "force": 2292,
      "And": 2293,
      "sk": 2294,
      "thor": 2295,
      "former": 2296,
      "continued": 2297,
      "ampion": 2298,
      "original": 2299,
      "mag": 2300,
      "story": 2301,
      "23": 2302,
      "round": 2303,
      "2010": 2304,
      "aken": 2305,
      "ences": 2306,
      "mid": 2307,
      "ston": 2308,
      "bert": 2309,
      "gram": 2310,
      "video": 2311,
      "iversity": 2312,
      "mp": 2313,
      "came": 2314,
      "stit": 2315,
      "held": 2316,
      "role": 2317,
      "next": 2318,
      "half": 2319,
      "still": 2320,
      "2008": 2321,
      "real": 2322,
      "company": 2323,
      "colle": 2324,
      "move": 2325,
      "21": 2326,
      "ety": 2327,
      "sible": 2328,
      "Or": 2329,
      "put": 2330,
      "fire": 2331,
      "28": 2332,
      "Church": 2333,
      "lim": 2334,
      "performan": 2335,
      "history": 2336,
      "bar": 2337,
      "tropical": 2338,
      "Pe": 2339,
      "addition": 2340,
      "local": 2341,
      "2009": 2342,
      "say": 2343,
      "Division": 2344,
      "ier": 2345,
      "fort": 2346,
      "urric": 2347,
      "forces": 2348,
      "100": 2349,
      "fel": 2350,
      "fact": 2351,
      "trad": 2352,
      "few": 2353,
      "ctions": 2354,
      "site": 2355,
      "ze": 2356,
      "27": 2357,
      "ared": 2358,
      "often": 2359,
      "ending": 2360,
      "mission": 2361,
      "ged": 2362,
      "wood": 2363,
      "Inter": 2364,
      "Li": 2365,
      "mand": 2366,
      "quar": 2367,
      "init": 2368,
      "riend": 2369,
      "strong": 2370,
      "nar": 2371,
      "ense": 2372,
      "aining": 2373,
      "further": 2374,
      "iment": 2375,
      "draw": 2376,
      "considered": 2377,
      "fr": 2378,
      "career": 2379,
      "effect": 2380,
      "player": 2381,
      "ution": 2382,
      "vo": 2383,
      "posed": 2384,
      "inc": 2385,
      "commun": 2386,
      "Te": 2387,
      "tract": 2388,
      "struct": 2389,
      "tro": 2390,
      "refer": 2391,
      "One": 2392,
      "State": 2393,
      "2007": 2394,
      "Per": 2395,
      "ator": 2396,
      "29": 2397,
      "ggest": 2398,
      "lor": 2399,
      "ribut": 2400,
      "similar": 2401,
      "With": 2402,
      "house": 2403,
      "augh": 2404,
      "military": 2405,
      "ps": 2406,
      "Ear": 2407,
      "app": 2408,
      "suggest": 2409,
      "days": 2410,
      "members": 2411,
      "import": 2412,
      "common": 2413,
      "body": 2414,
      "take": 2415,
      "22": 2416,
      "night": 2417,
      "sty": 2418,
      "club": 2419,
      "chang": 2420,
      "Ser": 2421,
      "ox": 2422,
      "without": 2423,
      "respon": 2424,
      "church": 2425,
      "polit": 2426,
      "Bar": 2427,
      "alion": 2428,
      "craft": 2429,
      "urricane": 2430,
      "imes": 2431,
      "Char": 2432,
      "2011": 2433,
      "fron": 2434,
      "test": 2435,
      "post": 2436,
      "scen": 2437,
      "different": 2438,
      "larg": 2439,
      "bur": 2440,
      "pite": 2441,
      "ico": 2442,
      "published": 2443,
      "Sci": 2444,
      "flo": 2445,
      "among": 2446,
      "ides": 2447,
      "level": 2448,
      "recorded": 2449,
      "capt": 2450,
      "you": 2451,
      "ali": 2452,
      "wide": 2453,
      "every": 2454,
      "Cor": 2455,
      "invol": 2456,
      "written": 2457,
      "however": 2458,
      "eved": 2459,
      "bruary": 2460,
      "Although": 2461,
      "February": 2462,
      "ering": 2463,
      "ified": 2464,
      "served": 2465,
      "week": 2466,
      "stead": 2467,
      "graph": 2468,
      "Ed": 2469,
      "2012": 2470,
      "Australian": 2471,
      "gn": 2472,
      "2006": 2473,
      "English": 2474,
      "iss": 2475,
      "lost": 2476,
      "studi": 2477,
      "went": 2478,
      "seven": 2479,
      "Mo": 2480,
      "moder": 2481,
      "Comp": 2482,
      "scor": 2483,
      "itar": 2484,
      "ford": 2485,
      "ives": 2486,
      "find": 2487,
      "na": 2488,
      "covered": 2489,
      "direct": 2490,
      "According": 2491,
      "iter": 2492,
      "Dy": 2493,
      "aster": 2494,
      "author": 2495,
      "successful": 2496,
      "cial": 2497,
      "foot": 2498,
      "gl": 2499,
      "ittle": 2500,
      "ital": 2501,
      "ided": 2502,
      "Mus": 2503,
      "face": 2504,
      "ney": 2505,
      "ploy": 2506,
      "ned": 2507,
      "ination": 2508,
      "atic": 2509,
      "total": 2510,
      "histor": 2511,
      "Des": 2512,
      "hold": 2513,
      "release": 2514,
      "Count": 2515,
      "river": 2516,
      "production": 2517,
      "Australia": 2518,
      "Air": 2519,
      "sit": 2520,
      "divid": 2521,
      "bas": 2522,
      "songs": 2523,
      "title": 2524,
      "particular": 2525,
      "prof": 2526,
      "tour": 2527,
      "quad": 2528,
      "become": 2529,
      "tele": 2530,
      "Ma": 2531,
      "ior": 2532,
      "white": 2533,
      "decl": 2534,
      "produced": 2535,
      "reported": 2536,
      "General": 2537,
      "Park": 2538,
      "Har": 2539,
      "Mich": 2540,
      "ices": 2541,
      "see": 2542,
      "provid": 2543,
      "ways": 2544,
      "having": 2545,
      "away": 2546,
      "ology": 2547,
      "Canad": 2548,
      "comb": 2549,
      "times": 2550,
      "Cent": 2551,
      "gave": 2552,
      "close": 2553,
      "how": 2554,
      "lands": 2555,
      "Su": 2556,
      "Port": 2557,
      "40": 2558,
      "League": 2559,
      "ges": 2560,
      "indu": 2561,
      "ably": 2562,
      "friend": 2563,
      "Min": 2564,
      "rad": 2565,
      "vict": 2566,
      "ones": 2567,
      "Phil": 2568,
      "ailed": 2569,
      "ument": 2570,
      "University": 2571,
      "popular": 2572,
      "given": 2573,
      "cing": 2574,
      "equ": 2575,
      "tell": 2576,
      "sure": 2577,
      "clear": 2578,
      "making": 2579,
      "stre": 2580,
      "stated": 2581,
      "signific": 2582,
      "pur": 2583,
      "iron": 2584,
      "Geor": 2585,
      "mm": 2586,
      "seen": 2587,
      "itions": 2588,
      "Ang": 2589,
      "change": 2590,
      "ey": 2591,
      "represent": 2592,
      "beh": 2593,
      "omet": 2594,
      "These": 2595,
      "Afric": 2596,
      "country": 2597,
      "rap": 2598,
      "influ": 2599,
      "never": 2600,
      "Rich": 2601,
      "plan": 2602,
      "Pol": 2603,
      "construction": 2604,
      "chn": 2605,
      "Roman": 2606,
      "cult": 2607,
      "want": 2608,
      "ours": 2609,
      "To": 2610,
      "too": 2611,
      "developed": 2612,
      "young": 2613,
      "include": 2614,
      "returned": 2615,
      "cus": 2616,
      "hip": 2617,
      "ama": 2618,
      "Reg": 2619,
      "fun": 2620,
      "great": 2621,
      "mit": 2622,
      "net": 2623,
      "look": 2624,
      "East": 2625,
      "law": 2626,
      "nd": 2627,
      "ister": 2628,
      "itive": 2629,
      "acy": 2630,
      "search": 2631,
      "2013": 2632,
      "Road": 2633,
      "reached": 2634,
      "destroy": 2635,
      "suff": 2636,
      "ivil": 2637,
      "critic": 2638,
      "key": 2639,
      "across": 2640,
      "front": 2641,
      "Tw": 2642,
      "amb": 2643,
      "board": 2644,
      "xim": 2645,
      "compet": 2646,
      "depend": 2647,
      "fle": 2648,
      "ither": 2649,
      "agre": 2650,
      "William": 2651,
      "bird": 2652,
      "range": 2653,
      "ization": 2654,
      "population": 2655,
      "activ": 2656,
      "miles": 2657,
      "aver": 2658,
      "program": 2659,
      "control": 2660,
      "works": 2661,
      "While": 2662,
      "America": 2663,
      "Japanese": 2664,
      "father": 2665,
      "gar": 2666,
      "word": 2667,
      "building": 2668,
      "Vi": 2669,
      "tolo": 2670,
      "els": 2671,
      "project": 2672,
      "theast": 2673,
      "announ": 2674,
      "ances": 2675,
      "teen": 2676,
      "died": 2677,
      "rent": 2678,
      "ception": 2679,
      "children": 2680,
      "Sim": 2681,
      "Song": 2682,
      "aren": 2683,
      "intro": 2684,
      "ades": 2685,
      "Scot": 2686,
      "ov": 2687,
      "coming": 2688,
      "significant": 2689,
      "BC": 2690,
      "should": 2691,
      "Sy": 2692,
      "located": 2693,
      "guns": 2694,
      "fantry": 2695,
      "Ne": 2696,
      "occur": 2697,
      "aul": 2698,
      "lished": 2699,
      "mor": 2700,
      "190": 2701,
      "Jack": 2702,
      "omen": 2703,
      "soci": 2704,
      "compos": 2705,
      "killed": 2706,
      "Roy": 2707,
      "ondon": 2708,
      "Ex": 2709,
      "High": 2710,
      "iness": 2711,
      "bus": 2712,
      "lay": 2713,
      "pond": 2714,
      "ring": 2715,
      "ison": 2716,
      "writing": 2717,
      "medi": 2718,
      "London": 2719,
      "Old": 2720,
      "aign": 2721,
      "manag": 2722,
      "earli": 2723,
      "fight": 2724,
      "tar": 2725,
      "established": 2726,
      "modern": 2727,
      "himself": 2728,
      "County": 2729,
      "60": 2730,
      "Po": 2731,
      "alth": 2732,
      "antic": 2733,
      "mix": 2734,
      "aves": 2735,
      "felt": 2736,
      "Dav": 2737,
      "Mount": 2738,
      "mount": 2739,
      "pain": 2740,
      "ising": 2741,
      "thought": 2742,
      "development": 2743,
      "introdu": 2744,
      "battle": 2745,
      "sum": 2746,
      "eder": 2747,
      "full": 2748,
      "sound": 2749,
      "pression": 2750,
      "complete": 2751,
      "performance": 2752,
      "eight": 2753,
      "igade": 2754,
      "room": 2755,
      "prim": 2756,
      "RA": 2757,
      "throughout": 2758,
      "areas": 2759,
      "ient": 2760,
      "ait": 2761,
      "good": 2762,
      "hor": 2763,
      "inv": 2764,
      "Black": 2765,
      "uc": 2766,
      "human": 2767,
      "noted": 2768,
      "appeared": 2769,
      "Dylan": 2770,
      "chart": 2771,
      "ope": 2772,
      "arried": 2773,
      "important": 2774,
      "vest": 2775,
      "started": 2776,
      "Ber": 2777,
      "omin": 2778,
      "sett": 2779,
      "black": 2780,
      "ago": 2781,
      "scri": 2782,
      "novel": 2783,
      "Army": 2784,
      "lin": 2785,
      "icult": 2786,
      "ots": 2787,
      "need": 2788,
      "performed": 2789,
      "ological": 2790,
      "pra": 2791,
      "style": 2792,
      "ked": 2793,
      "Wal": 2794,
      "rock": 2795,
      "ille": 2796,
      "various": 2797,
      "Ire": 2798,
      "rul": 2799,
      "rain": 2800,
      "sl": 2801,
      "rew": 2802,
      "entolo": 2803,
      "Company": 2804,
      "van": 2805,
      "remained": 2806,
      "fig": 2807,
      "feet": 2808,
      "Scientolo": 2809,
      "television": 2810,
      "ug": 2811,
      "surv": 2812,
      "cil": 2813,
      "fem": 2814,
      "techn": 2815,
      "grad": 2816,
      "cru": 2817,
      "typ": 2818,
      "Du": 2819,
      "omb": 2820,
      "caused": 2821,
      "Ireland": 2822,
      "poem": 2823,
      "interest": 2824,
      "troops": 2825,
      "cir": 2826,
      "fav": 2827,
      "El": 2828,
      "James": 2829,
      "appoint": 2830,
      "heavy": 2831,
      "others": 2832,
      "ensive": 2833,
      "peak": 2834,
      "experi": 2835,
      "Champion": 2836,
      "stone": 2837,
      "ino": 2838,
      "Hist": 2839,
      "mph": 2840,
      "ull": 2841,
      "2005": 2842,
      "players": 2843,
      "mun": 2844,
      "stant": 2845,
      "lect": 2846,
      "cycl": 2847,
      "ero": 2848,
      "entire": 2849,
      "Pal": 2850,
      "aj": 2851,
      "ability": 2852,
      "ublic": 2853,
      "gether": 2854,
      "events": 2855,
      "coast": 2856,
      "does": 2857,
      "taken": 2858,
      "ana": 2859,
      "era": 2860,
      "trave": 2861,
      "created": 2862,
      "burn": 2863,
      "Stre": 2864,
      "formation": 2865,
      "vill": 2866,
      "relig": 2867,
      "pair": 2868,
      "begin": 2869,
      "quadron": 2870,
      "San": 2871,
      "once": 2872,
      "abor": 2873,
      "born": 2874,
      "ping": 2875,
      "TV": 2876,
      "sib": 2877,
      "nal": 2878,
      "campaign": 2879,
      "lines": 2880,
      "reek": 2881,
      "political": 2882,
      "You": 2883,
      "god": 2884,
      "Cap": 2885,
      "enced": 2886,
      "189": 2887,
      "region": 2888,
      "Care": 2889,
      "So": 2890,
      "bet": 2891,
      "idence": 2892,
      "odes": 2893,
      "ively": 2894,
      "Ham": 2895,
      "Mag": 2896,
      "far": 2897,
      "asing": 2898,
      "dri": 2899,
      "sex": 2900,
      "cell": 2901,
      "sif": 2902,
      "ample": 2903,
      "bes": 2904,
      "ues": 2905,
      "live": 2906,
      "estim": 2907,
      "followed": 2908,
      "member": 2909,
      "completed": 2910,
      "Battalion": 2911,
      "stat": 2912,
      "Atl": 2913,
      "exp": 2914,
      "ael": 2915,
      "route": 2916,
      "island": 2917,
      "har": 2918,
      "bel": 2919,
      "mother": 2920,
      "announced": 2921,
      "nu": 2922,
      "ality": 2923,
      "pred": 2924,
      "meet": 2925,
      "added": 2926,
      "Hor": 2927,
      "aly": 2928,
      "uses": 2929,
      "exist": 2930,
      "Mer": 2931,
      "debut": 2932,
      "2004": 2933,
      "possible": 2934,
      "base": 2935,
      "ival": 2936,
      "relation": 2937,
      "least": 2938,
      "cogn": 2939,
      "difficult": 2940,
      "2nd": 2941,
      "31": 2942,
      "anim": 2943,
      "osaur": 2944,
      "host": 2945,
      "conne": 2946,
      "originally": 2947,
      "break": 2948,
      "sw": 2949,
      "But": 2950,
      "Some": 2951,
      "wall": 2952,
      "characters": 2953,
      "arded": 2954,
      "months": 2955,
      "Les": 2956,
      "broad": 2957,
      "loss": 2958,
      "consist": 2959,
      "cross": 2960,
      "ored": 2961,
      "stage": 2962,
      "associ": 2963,
      "southern": 2964,
      "mot": 2965,
      "ches": 2966,
      "know": 2967,
      "little": 2968,
      "pat": 2969,
      "saw": 2970,
      "uck": 2971,
      "termin": 2972,
      "comment": 2973,
      "process": 2974,
      "special": 2975,
      "tradition": 2976,
      "Other": 2977,
      "cop": 2978,
      "tre": 2979,
      "Royal": 2980,
      "script": 2981,
      "sport": 2982,
      "instead": 2983,
      "ories": 2984,
      "spir": 2985,
      "cert": 2986,
      "damage": 2987,
      "35": 2988,
      "ho": 2989,
      "tor": 2990,
      "Ab": 2991,
      "lam": 2992,
      "sess": 2993,
      "section": 2994,
      "defe": 2995,
      "vert": 2996,
      "grow": 2997,
      "names": 2998,
      "crew": 2999,
      "2015": 3000,
      "aircraft": 3001,
      "decided": 3002,
      "Str": 3003,
      "Kingdom": 3004,
      "got": 3005,
      "ique": 3006,
      "resident": 3007,
      "current": 3008,
      "features": 3009,
      "court": 3010,
      "nia": 3011,
      "2003": 3012,
      "Mor": 3013,
      "va": 3014,
      "voc": 3015,
      "behind": 3016,
      "Day": 3017,
      "Town": 3018,
      "case": 3019,
      "lack": 3020,
      "ids": 3021,
      "tempor": 3022,
      "redu": 3023,
      "service": 3024,
      "Som": 3025,
      "da": 3026,
      "ible": 3027,
      "sen": 3028,
      "non": 3029,
      "eastern": 3030,
      "Music": 3031,
      "ban": 3032,
      "ses": 3033,
      "Two": 3034,
      "mas": 3035,
      "reli": 3036,
      "forced": 3037,
      "clos": 3038,
      "188": 3039,
      "highway": 3040,
      "70": 3041,
      "Ke": 3042,
      "cup": 3043,
      "lled": 3044,
      "critics": 3045,
      "hab": 3046,
      "recogn": 3047,
      "audi": 3048,
      "playing": 3049,
      "elect": 3050,
      "Dr": 3051,
      "together": 3052,
      "pie": 3053,
      "yard": 3054,
      "wife": 3055,
      "operations": 3056,
      "Scientology": 3057,
      "Mex": 3058,
      "Rep": 3059,
      "Route": 3060,
      "cause": 3061,
      "anti": 3062,
      "regular": 3063,
      "Mad": 3064,
      "fif": 3065,
      "Sun": 3066,
      "ication": 3067,
      "France": 3068,
      "Mont": 3069,
      "eks": 3070,
      "towards": 3071,
      "fourth": 3072,
      "don": 3073,
      "ators": 3074,
      "aut": 3075,
      "compan": 3076,
      "igned": 3077,
      "pho": 3078,
      "rail": 3079,
      "Street": 3080,
      "either": 3081,
      "aper": 3082,
      "ington": 3083,
      "approach": 3084,
      "eventually": 3085,
      "Fin": 3086,
      "ica": 3087,
      "illa": 3088,
      "upon": 3089,
      "central": 3090,
      "opened": 3091,
      "David": 3092,
      "NY": 3093,
      "hon": 3094,
      "yards": 3095,
      "ata": 3096,
      "scored": 3097,
      "dle": 3098,
      "impro": 3099,
      "forms": 3100,
      "hurricane": 3101,
      "icated": 3102,
      "accept": 3103,
      "separ": 3104,
      "finished": 3105,
      "subsequ": 3106,
      "ha": 3107,
      "goal": 3108,
      "ready": 3109,
      "claimed": 3110,
      "Val": 3111,
      "almost": 3112,
      "iting": 3113,
      "proble": 3114,
      "cret": 3115,
      "profess": 3116,
      "Wales": 3117,
      "individ": 3118,
      "northern": 3119,
      "Bill": 3120,
      "dou": 3121,
      "stars": 3122,
      "commer": 3123,
      "employ": 3124,
      "azine": 3125,
      "ission": 3126,
      "SA": 3127,
      "units": 3128,
      "condu": 3129,
      "rick": 3130,
      "points": 3131,
      "counter": 3132,
      "Follow": 3133,
      "directed": 3134,
      "Robert": 3135,
      "appearance": 3136,
      "dy": 3137,
      "sold": 3138,
      "shot": 3139,
      "featured": 3140,
      "western": 3141,
      "leading": 3142,
      "nat": 3143,
      "assist": 3144,
      "graphy": 3145,
      "laun": 3146,
      "Cup": 3147,
      "Fir": 3148,
      "Hill": 3149,
      "ply": 3150,
      "respect": 3151,
      "ends": 3152,
      "Cr": 3153,
      "ceed": 3154,
      "oted": 3155,
      "Grand": 3156,
      "Paul": 3157,
      "ald": 3158,
      "example": 3159,
      "joined": 3160,
      "500": 3161,
      "Feder": 3162,
      "women": 3163,
      "term": 3164,
      "ota": 3165,
      "general": 3166,
      "aval": 3167,
      "believed": 3168,
      "Carey": 3169,
      "Following": 3170,
      "Ze": 3171,
      "inj": 3172,
      "brought": 3173,
      "38": 3174,
      "ration": 3175,
      "concl": 3176,
      "Hen": 3177,
      "sour": 3178,
      "Bel": 3179,
      "God": 3180,
      "mater": 3181,
      "ties": 3182,
      "lower": 3183,
      "winds": 3184,
      "International": 3185,
      "45": 3186,
      "Am": 3187,
      "tel": 3188,
      "emy": 3189,
      "Don": 3190,
      "ky": 3191,
      "plann": 3192,
      "reng": 3193,
      "allowed": 3194,
      "largest": 3195,
      "Game": 3196,
      "Med": 3197,
      "ken": 3198,
      "study": 3199,
      "compl": 3200,
      "press": 3201,
      "langu": 3202,
      "Act": 3203,
      "Jew": 3204,
      "Mi": 3205,
      "provided": 3206,
      "Sar": 3207,
      "ials": 3208,
      "nine": 3209,
      "thod": 3210,
      "mean": 3211,
      "weeks": 3212,
      "rather": 3213,
      "Brigade": 3214,
      "Play": 3215,
      "Part": 3216,
      "Sw": 3217,
      "flood": 3218,
      "From": 3219,
      "aland": 3220,
      "heel": 3221,
      "sem": 3222,
      "det": 3223,
      "writer": 3224,
      "useum": 3225,
      "opening": 3226,
      "George": 3227,
      "75": 3228,
      "Gre": 3229,
      "My": 3230,
      "hous": 3231,
      "streng": 3232,
      "deli": 3233,
      "Thom": 3234,
      "working": 3235,
      "director": 3236,
      "date": 3237,
      "fly": 3238,
      "ishing": 3239,
      "stry": 3240,
      "cost": 3241,
      "Dep": 3242,
      "civil": 3243,
      "scre": 3244,
      "reve": 3245,
      "contract": 3246,
      "minist": 3247,
      "cul": 3248,
      "free": 3249,
      "tee": 3250,
      "Star": 3251,
      "worked": 3252,
      "Command": 3253,
      "elements": 3254,
      "help": 3255,
      "Mal": 3256,
      "foc": 3257,
      "ape": 3258,
      "sia": 3259,
      "coll": 3260,
      "involved": 3261,
      "White": 3262,
      "Off": 3263,
      "atin": 3264,
      "lear": 3265,
      "designed": 3266,
      "earlier": 3267,
      "First": 3268,
      "hom": 3269,
      "hours": 3270,
      "meas": 3271,
      "generally": 3272,
      "uk": 3273,
      "invest": 3274,
      "hest": 3275,
      "istic": 3276,
      "Love": 3277,
      "leng": 3278,
      "Indian": 3279,
      "European": 3280,
      "uation": 3281,
      "ville": 3282,
      "conom": 3283,
      "ida": 3284,
      "outside": 3285,
      "pract": 3286,
      "saying": 3287,
      "Ho": 3288,
      "Navy": 3289,
      "rid": 3290,
      "sea": 3291,
      "quick": 3292,
      "wanted": 3293,
      "ming": 3294,
      "nes": 3295,
      "cially": 3296,
      "engine": 3297,
      "Viet": 3298,
      "Hol": 3299,
      "replaced": 3300,
      "bodi": 3301,
      "Island": 3302,
      "Ap": 3303,
      "Mark": 3304,
      "Rus": 3305,
      "hit": 3306,
      "parts": 3307,
      "rang": 3308,
      "soon": 3309,
      "NA": 3310,
      "pers": 3311,
      "Best": 3312,
      "erous": 3313,
      "acc": 3314,
      "ential": 3315,
      "prob": 3316,
      "avail": 3317,
      "soldi": 3318,
      "victory": 3319,
      "ns": 3320,
      "uel": 3321,
      "estimated": 3322,
      "Qu": 3323,
      "Ver": 3324,
      "mal": 3325,
      "nel": 3326,
      "previously": 3327,
      "Pac": 3328,
      "ault": 3329,
      "particularly": 3330,
      "80": 3331,
      "drop": 3332,
      "above": 3333,
      "2014": 3334,
      "Red": 3335,
      "fre": 3336,
      "race": 3337,
      "cts": 3338,
      "metres": 3339,
      "Christian": 3340,
      "structure": 3341,
      "Angel": 3342,
      "business": 3343,
      "Most": 3344,
      "mach": 3345,
      "ples": 3346,
      "length": 3347,
      "House": 3348,
      "Ir": 3349,
      "Kore": 3350,
      "reason": 3351,
      "mode": 3352,
      "2001": 3353,
      "inese": 3354,
      "Flor": 3355,
      "ius": 3356,
      "sat": 3357,
      "seem": 3358,
      "unk": 3359,
      "ocial": 3360,
      "sip": 3361,
      "birds": 3362,
      "ecut": 3363,
      "ospit": 3364,
      "Chinese": 3365,
      "transport": 3366,
      "scene": 3367,
      "praised": 3368,
      "Rock": 3369,
      "19th": 3370,
      "official": 3371,
      "Despite": 3372,
      "90": 3373,
      "Em": 3374,
      "Oli": 3375,
      "past": 3376,
      "certain": 3377,
      "III": 3378,
      "liament": 3379,
      "Bra": 3380,
      "Mis": 3381,
      "ger": 3382,
      "1st": 3383,
      "station": 3384,
      "stop": 3385,
      "iction": 3386,
      "Ha": 3387,
      "aries": 3388,
      "ula": 3389,
      "aint": 3390,
      "transfer": 3391,
      "ordered": 3392,
      "standing": 3393,
      "Bay": 3394,
      "poet": 3395,
      "type": 3396,
      "passed": 3397,
      "Championship": 3398,
      "Mac": 3399,
      "Pri": 3400,
      "inst": 3401,
      "love": 3402,
      "ption": 3403,
      "issue": 3404,
      "appointed": 3405,
      "Zealand": 3406,
      "mult": 3407,
      "threat": 3408,
      "occup": 3409,
      "viol": 3410,
      "186": 3411,
      "ize": 3412,
      "maintain": 3413,
      "increased": 3414,
      "Battle": 3415,
      "Oper": 3416,
      "los": 3417,
      "phas": 3418,
      "research": 3419,
      "super": 3420,
      "Britain": 3421,
      "defeated": 3422,
      "Pre": 3423,
      "cal": 3424,
      "quest": 3425,
      "Tor": 3426,
      "bound": 3427,
      "tic": 3428,
      "taking": 3429,
      "depression": 3430,
      "185": 3431,
      "Michael": 3432,
      "pressed": 3433,
      "going": 3434,
      "turned": 3435,
      "quarter": 3436,
      "Mexico": 3437,
      "Gal": 3438,
      "alter": 3439,
      "deal": 3440,
      "oney": 3441,
      "condom": 3442,
      "flight": 3443,
      "Lesnar": 3444,
      "Cam": 3445,
      "argu": 3446,
      "evidence": 3447,
      "syn": 3448,
      "portr": 3449,
      "Atlantic": 3450,
      "Later": 3451,
      "hig": 3452,
      "ara": 3453,
      "account": 3454,
      "football": 3455,
      "Coun": 3456,
      "Hu": 3457,
      "cern": 3458,
      "rac": 3459,
      "sell": 3460,
      "bell": 3461,
      "commit": 3462,
      "remains": 3463,
      "manager": 3464,
      "Creek": 3465,
      "Mary": 3466,
      "pet": 3467,
      "vice": 3468,
      "amount": 3469,
      "whom": 3470,
      "poor": 3471,
      "positive": 3472,
      "McC": 3473,
      "bri": 3474,
      "ened": 3475,
      "teach": 3476,
      "pool": 3477,
      "center": 3478,
      "coach": 3479,
      "signed": 3480,
      "available": 3481,
      "hard": 3482,
      "rd": 3483,
      "stay": 3484,
      "comes": 3485,
      "bridge": 3486,
      "Republic": 3487,
      "Dan": 3488,
      "bi": 3489,
      "ention": 3490,
      "Early": 3491,
      "Pacific": 3492,
      "Que": 3493,
      "aters": 3494,
      "extr": 3495,
      "ributed": 3496,
      "Federer": 3497,
      "highest": 3498,
      "army": 3499,
      "ranch": 3500,
      "establish": 3501,
      "Florida": 3502,
      "err": 3503,
      "touch": 3504,
      "likely": 3505,
      "Hero": 3506,
      "2002": 3507,
      "prepar": 3508,
      "damaged": 3509,
      "particip": 3510,
      "pi": 3511,
      "pan": 3512,
      "inn": 3513,
      "told": 3514,
      "heav": 3515,
      "utes": 3516,
      "iving": 3517,
      "average": 3518,
      "female": 3519,
      "36": 3520,
      "School": 3521,
      "ita": 3522,
      "vers": 3523,
      "interview": 3524,
      "flict": 3525,
      "arrived": 3526,
      "ordan": 3527,
      "Richard": 3528,
      "Hall": 3529,
      "bit": 3530,
      "native": 3531,
      "itz": 3532,
      "territ": 3533,
      "discus": 3534,
      "bill": 3535,
      "uz": 3536,
      "arily": 3537,
      "itself": 3538,
      "lected": 3539,
      "Infantry": 3540,
      "temporary": 3541,
      "Gold": 3542,
      "aring": 3543,
      "imin": 3544,
      "usion": 3545,
      "lie": 3546,
      "brother": 3547,
      "Cro": 3548,
      "ga": 3549,
      "mel": 3550,
      "itor": 3551,
      "ament": 3552,
      "immedi": 3553,
      "surround": 3554,
      "asked": 3555,
      "Thomas": 3556,
      "Jordan": 3557,
      "Ty": 3558,
      "hap": 3559,
      "here": 3560,
      "forward": 3561,
      "ries": 3562,
      "actions": 3563,
      "prevent": 3564,
      "studio": 3565,
      "rate": 3566,
      "watch": 3567,
      "specific": 3568,
      "initially": 3569,
      "community": 3570,
      "Gl": 3571,
      "Mid": 3572,
      "ded": 3573,
      "recent": 3574,
      "training": 3575,
      "sian": 3576,
      "Union": 3577,
      "limited": 3578,
      "Regiment": 3579,
      "Sch": 3580,
      "sch": 3581,
      "slow": 3582,
      "treat": 3583,
      "execut": 3584,
      "despite": 3585,
      "rict": 3586,
      "Im": 3587,
      "President": 3588,
      "Vir": 3589,
      "gold": 3590,
      "hib": 3591,
      "lot": 3592,
      "pected": 3593,
      "2000": 3594,
      "Canada": 3595,
      "Super": 3596,
      "Olivi": 3597,
      "Award": 3598,
      "Bur": 3599,
      "econom": 3600,
      "give": 3601,
      "somet": 3602,
      "enter": 3603,
      "respond": 3604,
      "Carol": 3605,
      "ximately": 3606,
      "Egy": 3607,
      "latter": 3608,
      "usually": 3609,
      "tons": 3610,
      "village": 3611,
      "dol": 3612,
      "ny": 3613,
      "pot": 3614,
      "ying": 3615,
      "thus": 3616,
      "whose": 3617,
      "mixed": 3618,
      "AA": 3619,
      "Tom": 3620,
      "states": 3621,
      "aled": 3622,
      "already": 3623,
      "secur": 3624,
      "ateg": 3625,
      "marked": 3626,
      "increasing": 3627,
      "Do": 3628,
      "Year": 3629,
      "sal": 3630,
      "text": 3631,
      "ails": 3632,
      "required": 3633,
      "probably": 3634,
      "Res": 3635,
      "ila": 3636,
      "ilities": 3637,
      "dead": 3638,
      "size": 3639,
      "Under": 3640,
      "colon": 3641,
      "stein": 3642,
      "quarters": 3643,
      "agreed": 3644,
      "Tem": 3645,
      "mass": 3646,
      "pread": 3647,
      "commission": 3648,
      "listed": 3649,
      "captured": 3650,
      "ume": 3651,
      "possib": 3652,
      "ference": 3653,
      "Scott": 3654,
      "religious": 3655,
      "Henry": 3656,
      "Times": 3657,
      "ray": 3658,
      "champion": 3659,
      "proper": 3660,
      "aker": 3661,
      "fully": 3662,
      "police": 3663,
      "changes": 3664,
      "soldiers": 3665,
      "Bus": 3666,
      "mur": 3667,
      "cher": 3668,
      "irth": 3669,
      "print": 3670,
      "capital": 3671,
      "souri": 3672,
      "better": 3673,
      "relationship": 3674,
      "Missouri": 3675,
      "FA": 3676,
      "hol": 3677,
      "That": 3678,
      "37": 3679,
      "Ben": 3680,
      "Tur": 3681,
      "must": 3682,
      "defin": 3683,
      "lies": 3684,
      "Span": 3685,
      "Tech": 3686,
      "Hel": 3687,
      "fund": 3688,
      "mat": 3689,
      "enough": 3690,
      "international": 3691,
      "remaining": 3692,
      "decision": 3693,
      "suggested": 3694,
      "fleet": 3695,
      "beginning": 3696,
      "Sou": 3697,
      "aby": 3698,
      "defeat": 3699,
      "evol": 3700,
      "winning": 3701,
      "Peter": 3702,
      "pay": 3703,
      "introduced": 3704,
      "doc": 3705,
      "failed": 3706,
      "independ": 3707,
      "asy": 3708,
      "according": 3709,
      "object": 3710,
      "nearly": 3711,
      "bot": 3712,
      "daugh": 3713,
      "liter": 3714,
      "moving": 3715,
      "division": 3716,
      "ief": 3717,
      "running": 3718,
      "habit": 3719,
      "Cong": 3720,
      "Great": 3721,
      "Nero": 3722,
      "Tri": 3723,
      "ti": 3724,
      "tion": 3725,
      "abs": 3726,
      "load": 3727,
      "goals": 3728,
      "Philip": 3729,
      "Africa": 3730,
      "Egypt": 3731,
      "educ": 3732,
      "staff": 3733,
      "concern": 3734,
      "idea": 3735,
      "shows": 3736,
      "priv": 3737,
      "India": 3738,
      "commercial": 3739,
      "language": 3740,
      "Squadron": 3741,
      "fut": 3742,
      "might": 3743,
      "imp": 3744,
      "exc": 3745,
      "occas": 3746,
      "overnor": 3747,
      "187": 3748,
      "score": 3749,
      "Charles": 3750,
      "circ": 3751,
      "48": 3752,
      "bow": 3753,
      "mir": 3754,
      "oid": 3755,
      "ctive": 3756,
      "uments": 3757,
      "feel": 3758,
      "spent": 3759,
      "Associ": 3760,
      "Cour": 3761,
      "atory": 3762,
      "roll": 3763,
      "league": 3764,
      "reser": 3765,
      "illery": 3766,
      "recording": 3767,
      "depict": 3768,
      "favor": 3769,
      "Fort": 3770,
      "bal": 3771,
      "sts": 3772,
      "espe": 3773,
      "chap": 3774,
      "perform": 3775,
      "uded": 3776,
      "intended": 3777,
      "keep": 3778,
      "space": 3779,
      "rics": 3780,
      "minor": 3781,
      "ronic": 3782,
      "Germany": 3783,
      "Colle": 3784,
      "prior": 3785,
      "Spanish": 3786,
      "especially": 3787,
      "Many": 3788,
      "Sing": 3789,
      "vin": 3790,
      "ream": 3791,
      "ami": 3792,
      "idents": 3793,
      "arts": 3794,
      "active": 3795,
      "supported": 3796,
      "approximately": 3797,
      "destroyed": 3798,
      "Irish": 3799,
      "Go": 3800,
      "Jer": 3801,
      "fru": 3802,
      "woman": 3803,
      "discovered": 3804,
      "groups": 3805,
      "History": 3806,
      "33": 3807,
      "Vict": 3808,
      "jour": 3809,
      "nation": 3810,
      "rup": 3811,
      "squ": 3812,
      "olic": 3813,
      "exten": 3814,
      "positions": 3815,
      "Mil": 3816,
      "kil": 3817,
      "spo": 3818,
      "ederal": 3819,
      "conf": 3820,
      "box": 3821,
      "archae": 3822,
      "reviews": 3823,
      "fighting": 3824,
      "Film": 3825,
      "Je": 3826,
      "Spe": 3827,
      "sil": 3828,
      "depart": 3829,
      "mention": 3830,
      "northeast": 3831,
      "subject": 3832,
      "location": 3833,
      "operation": 3834,
      "response": 3835,
      "Awards": 3836,
      "prog": 3837,
      "assigned": 3838,
      "office": 3839,
      "weight": 3840,
      "includes": 3841,
      "related": 3842,
      "runs": 3843,
      "sometimes": 3844,
      "frequ": 3845,
      "agon": 3846,
      "Art": 3847,
      "natural": 3848,
      "ben": 3849,
      "flow": 3850,
      "food": 3851,
      "alo": 3852,
      "exam": 3853,
      "Another": 3854,
      "constructed": 3855,
      "larger": 3856,
      "Canadian": 3857,
      "Western": 3858,
      "magazine": 3859,
      "additional": 3860,
      "39": 3861,
      "Brown": 3862,
      "orm": 3863,
      "ites": 3864,
      "secut": 3865,
      "contr": 3866,
      "Bro": 3867,
      "Mos": 3868,
      "Rac": 3869,
      "ners": 3870,
      "ram": 3871,
      "whe": 3872,
      "ili": 3873,
      "provide": 3874,
      "ishop": 3875,
      "mond": 3876,
      "phys": 3877,
      "Oldham": 3878,
      "Law": 3879,
      "social": 3880,
      "ander": 3881,
      "itch": 3882,
      "Bal": 3883,
      "yer": 3884,
      "thick": 3885,
      "oud": 3886,
      "mostly": 3887,
      "Light": 3888,
      "Rad": 3889,
      "vic": 3890,
      "acqu": 3891,
      "amed": 3892,
      "lymp": 3893,
      "igan": 3894,
      "artment": 3895,
      "anna": 3896,
      "feature": 3897,
      "Fur": 3898,
      "Hurricane": 3899,
      "dig": 3900,
      "male": 3901,
      "tur": 3902,
      "pressure": 3903,
      "changed": 3904,
      "47": 3905,
      "Camp": 3906,
      "Jin": 3907,
      "Olymp": 3908,
      "fell": 3909,
      "ih": 3910,
      "cean": 3911,
      "aven": 3912,
      "notes": 3913,
      "Steven": 3914,
      "domin": 3915,
      "Over": 3916,
      "Rose": 3917,
      "Tour": 3918,
      "UK": 3919,
      "adap": 3920,
      "bon": 3921,
      "carried": 3922,
      "adop": 3923,
      "becoming": 3924,
      "deep": 3925,
      "lood": 3926,
      "guitar": 3927,
      "minutes": 3928,
      "Lo": 3929,
      "Rh": 3930,
      "bs": 3931,
      "cou": 3932,
      "andon": 3933,
      "cele": 3934,
      "emb": 3935,
      "Head": 3936,
      "1999": 3937,
      "request": 3938,
      "rison": 3939,
      "radio": 3940,
      "future": 3941,
      "Cer": 3942,
      "Lu": 3943,
      "birth": 3944,
      "rein": 3945,
      "ato": 3946,
      "shown": 3947,
      "China": 3948,
      "smaller": 3949,
      "subsequently": 3950,
      "cred": 3951,
      "ett": 3952,
      "ranked": 3953,
      "Frank": 3954,
      "Olivier": 3955,
      "Since": 3956,
      "Wheel": 3957,
      "paren": 3958,
      "sus": 3959,
      "ases": 3960,
      "entered": 3961,
      "unit": 3962,
      "president": 3963,
      "broadcast": 3964,
      "fill": 3965,
      "wound": 3966,
      "thedr": 3967,
      "rem": 3968,
      "ency": 3969,
      "ady": 3970,
      "appl": 3971,
      "1995": 3972,
      "selves": 3973,
      "relative": 3974,
      "teams": 3975,
      "referred": 3976,
      "orial": 3977,
      "assif": 3978,
      "percent": 3979,
      "pose": 3980,
      "plays": 3981,
      "venue": 3982,
      "surface": 3983,
      "course": 3984,
      "equip": 3985,
      "Jewish": 3986,
      "quickly": 3987,
      "49": 3988,
      "Back": 3989,
      "bad": 3990,
      "mic": 3991,
      "edge": 3992,
      "die": 3993,
      "peror": 3994,
      "attacks": 3995,
      "affic": 3996,
      "problems": 3997,
      "brief": 3998,
      "Cath": 3999,
      "uals": 4000,
      "atives": 4001,
      "mith": 4002,
      "Guitar": 4003,
      "professional": 4004,
      "Victor": 4005,
      "Del": 4006,
      "Mart": 4007,
      "bio": 4008,
      "edy": 4009,
      "nest": 4010,
      "temper": 4011,
      "Force": 4012,
      "fifth": 4013,
      "Billboard": 4014,
      "material": 4015,
      "Association": 4016,
      "Cal": 4017,
      "FI": 4018,
      "Sam": 4019,
      "reme": 4020,
      "aging": 4021,
      "apo": 4022,
      "via": 4023,
      "visit": 4024,
      "appears": 4025,
      "media": 4026,
      "summer": 4027,
      "Bob": 4028,
      "jud": 4029,
      "image": 4030,
      "achi": 4031,
      "ports": 4032,
      "create": 4033,
      "indic": 4034,
      "cient": 4035,
      "Second": 4036,
      "aught": 4037,
      "closed": 4038,
      "ospital": 4039,
      "Ale": 4040,
      "Tropical": 4041,
      "leaving": 4042,
      "rael": 4043,
      "minute": 4044,
      "election": 4045,
      "attacked": 4046,
      "alifor": 4047,
      "Miss": 4048,
      "Sur": 4049,
      "bomb": 4050,
      "hair": 4051,
      "atest": 4052,
      "pring": 4053,
      "Manila": 4054,
      "officers": 4055,
      "majority": 4056,
      "stream": 4057,
      "400": 4058,
      "76": 4059,
      "Pat": 4060,
      "Penn": 4061,
      "fit": 4062,
      "hou": 4063,
      "nomin": 4064,
      "onto": 4065,
      "prison": 4066,
      "speed": 4067,
      "Arch": 4068,
      "ensity": 4069,
      "complex": 4070,
      "suffered": 4071,
      "launched": 4072,
      "Gi": 4073,
      "Not": 4074,
      "withdraw": 4075,
      "rapid": 4076,
      "thedral": 4077,
      "1950": 4078,
      "emer": 4079,
      "Ital": 4080,
      "themselves": 4081,
      "consider": 4082,
      "students": 4083,
      "primary": 4084,
      "Virgin": 4085,
      "murder": 4086,
      "Califor": 4087,
      "Latin": 4088,
      "Ot": 4089,
      "Ter": 4090,
      "makes": 4091,
      "always": 4092,
      "concert": 4093,
      "artillery": 4094,
      "overall": 4095,
      "largely": 4096,
      "effects": 4097,
      "32": 4098,
      "nos": 4099,
      "zy": 4100,
      "tom": 4101,
      "suit": 4102,
      "Israel": 4103,
      "coup": 4104,
      "wal": 4105,
      "demon": 4106,
      "plot": 4107,
      "shoot": 4108,
      "ously": 4109,
      "films": 4110,
      "critical": 4111,
      "Central": 4112,
      "occurred": 4113,
      "screen": 4114,
      "Council": 4115,
      "How": 4116,
      "Land": 4117,
      "cm": 4118,
      "lyrics": 4119,
      "otion": 4120,
      "classif": 4121,
      "upper": 4122,
      "block": 4123,
      "contains": 4124,
      "1998": 4125,
      "scenes": 4126,
      "experience": 4127,
      "La": 4128,
      "Mr": 4129,
      "gins": 4130,
      "bring": 4131,
      "Common": 4132,
      "longer": 4133,
      "Wheeler": 4134,
      "Jose": 4135,
      "Wood": 4136,
      "dark": 4137,
      "fail": 4138,
      "sey": 4139,
      "ulpt": 4140,
      "traffic": 4141,
      "portion": 4142,
      "boats": 4143,
      "jected": 4144,
      "investig": 4145,
      "Gul": 4146,
      "Sal": 4147,
      "fans": 4148,
      "job": 4149,
      "Brad": 4150,
      "status": 4151,
      "Os": 4152,
      "lived": 4153,
      "increase": 4154,
      "stitute": 4155,
      "movement": 4156,
      "Major": 4157,
      "Croat": 4158,
      "schol": 4159,
      "daughter": 4160,
      "send": 4161,
      "conflict": 4162,
      "abandon": 4163,
      "proposed": 4164,
      "2016": 4165,
      "undred": 4166,
      "casual": 4167,
      "osaurus": 4168,
      "California": 4169,
      "Bu": 4170,
      "Dis": 4171,
      "ding": 4172,
      "gas": 4173,
      "purch": 4174,
      "anced": 4175,
      "administ": 4176,
      "ultim": 4177,
      "neg": 4178,
      "necess": 4179,
      "ept": 4180,
      "bled": 4181,
      "gue": 4182,
      "sculpt": 4183,
      "itting": 4184,
      "market": 4185,
      "issued": 4186,
      "mitted": 4187,
      "Fore": 4188,
      "Sen": 4189,
      "Sever": 4190,
      "fa": 4191,
      "money": 4192,
      "rat": 4193,
      "clad": 4194,
      "grant": 4195,
      "commander": 4196,
      "voice": 4197,
      "settle": 4198,
      "associated": 4199,
      "Haw": 4200,
      "MS": 4201,
      "slight": 4202,
      "throw": 4203,
      "removed": 4204,
      "iser": 4205,
      "below": 4206,
      "exper": 4207,
      "earth": 4208,
      "observ": 4209,
      "Record": 4210,
      "arriage": 4211,
      "influence": 4212,
      "bodies": 4213,
      "Sol": 4214,
      "joy": 4215,
      "ker": 4216,
      "think": 4217,
      "irt": 4218,
      "agg": 4219,
      "ulu": 4220,
      "1930": 4221,
      "20th": 4222,
      "party": 4223,
      "Commission": 4224,
      "300": 4225,
      "Dist": 4226,
      "nature": 4227,
      "ergy": 4228,
      "step": 4229,
      "chall": 4230,
      "stra": 4231,
      "meant": 4232,
      "centre": 4233,
      "numbers": 4234,
      "ario": 4235,
      "Northern": 4236,
      "legal": 4237,
      "culture": 4238,
      "planned": 4239,
      "Tran": 4240,
      "gent": 4241,
      "gir": 4242,
      "takes": 4243,
      "waters": 4244,
      "dev": 4245,
      "determin": 4246,
      "pole": 4247,
      "serious": 4248,
      "musical": 4249,
      "cyclone": 4250,
      "mom": 4251,
      "uter": 4252,
      "ining": 4253,
      "leave": 4254,
      "verse": 4255,
      "terms": 4256,
      "personal": 4257,
      "Earth": 4258,
      "Michigan": 4259,
      "African": 4260,
      "private": 4261,
      "Rachel": 4262,
      "3rd": 4263,
      "Lou": 4264,
      "rare": 4265,
      "beat": 4266,
      "expected": 4267,
      "corpor": 4268,
      "Center": 4269,
      "Court": 4270,
      "Ca": 4271,
      "kin": 4272,
      "kan": 4273,
      "pow": 4274,
      "semb": 4275,
      "cting": 4276,
      "ulated": 4277,
      "awarded": 4278,
      "Arab": 4279,
      "advant": 4280,
      "performances": 4281,
      "directly": 4282,
      "morning": 4283,
      "strength": 4284,
      "celebr": 4285,
      "Bri": 4286,
      "Boy": 4287,
      "Che": 4288,
      "Lake": 4289,
      "ML": 4290,
      "bury": 4291,
      "fast": 4292,
      "unable": 4293,
      "plant": 4294,
      "plans": 4295,
      "clo": 4296,
      "trade": 4297,
      "itect": 4298,
      "buildings": 4299,
      "advance": 4300,
      "double": 4301,
      "whether": 4302,
      "Bul": 4303,
      "If": 4304,
      "bing": 4305,
      "hop": 4306,
      "ta": 4307,
      "eding": 4308,
      "atre": 4309,
      "twent": 4310,
      "Station": 4311,
      "finally": 4312,
      "syl": 4313,
      "heads": 4314,
      "sequence": 4315,
      "companies": 4316,
      "34": 4317,
      "9th": 4318,
      "Jim": 4319,
      "Kh": 4320,
      "Lord": 4321,
      "Met": 4322,
      "Mill": 4323,
      "Tre": 4324,
      "Tex": 4325,
      "lers": 4326,
      "married": 4327,
      "rout": 4328,
      "insp": 4329,
      "infantry": 4330,
      "itation": 4331,
      "igg": 4332,
      "ump": 4333,
      "earned": 4334,
      "vie": 4335,
      "weap": 4336,
      "wealth": 4337,
      "records": 4338,
      "stitut": 4339,
      "conducted": 4340,
      "meaning": 4341,
      "Fle": 4342,
      "fil": 4343,
      "sched": 4344,
      "inent": 4345,
      "forts": 4346,
      "worth": 4347,
      "compared": 4348,
      "responsible": 4349,
      "competition": 4350,
      "commented": 4351,
      "piece": 4352,
      "Jane": 4353,
      "Sto": 4354,
      "yet": 4355,
      "health": 4356,
      "living": 4357,
      "affe": 4358,
      "Chic": 4359,
      "iano": 4360,
      "Studi": 4361,
      "discover": 4362,
      "aily": 4363,
      "Club": 4364,
      "Der": 4365,
      "hus": 4366,
      "theme": 4367,
      "esh": 4368,
      "ican": 4369,
      "access": 4370,
      "demand": 4371,
      "ellow": 4372,
      "umb": 4373,
      "method": 4374,
      "Its": 4375,
      "Through": 4376,
      "raised": 4377,
      "giving": 4378,
      "tellig": 4379,
      "65": 4380,
      "Bow": 4381,
      "NC": 4382,
      "Tay": 4383,
      "deb": 4384,
      "ifa": 4385,
      "offered": 4386,
      "presence": 4387,
      "polic": 4388,
      "Sea": 4389,
      "figure": 4390,
      "Mem": 4391,
      "Pen": 4392,
      "Ross": 4393,
      "batter": 4394,
      "done": 4395,
      "mig": 4396,
      "escap": 4397,
      "olk": 4398,
      "resc": 4399,
      "actor": 4400,
      "possess": 4401,
      "Three": 4402,
      "newsp": 4403,
      "sons": 4404,
      "writers": 4405,
      "episodes": 4406,
      "border": 4407,
      "battles": 4408,
      "attempted": 4409,
      "industry": 4410,
      "activity": 4411,
      "Museum": 4412,
      "gain": 4413,
      "nis": 4414,
      "path": 4415,
      "enon": 4416,
      "150": 4417,
      "stories": 4418,
      "books": 4419,
      "immediately": 4420,
      "Var": 4421,
      "hic": 4422,
      "vey": 4423,
      "boy": 4424,
      "whole": 4425,
      "1993": 4426,
      "Enter": 4427,
      "matches": 4428,
      "College": 4429,
      "Ev": 4430,
      "gal": 4431,
      "park": 4432,
      "attract": 4433,
      "tourn": 4434,
      "umed": 4435,
      "istics": 4436,
      "ipal": 4437,
      "weaken": 4438,
      "tracks": 4439,
      "Parliament": 4440,
      "schools": 4441,
      "Texas": 4442,
      "44": 4443,
      "Just": 4444,
      "mouth": 4445,
      "selected": 4446,
      "Storm": 4447,
      "helped": 4448,
      "Both": 4449,
      "machine": 4450,
      "portray": 4451,
      "dro": 4452,
      "wing": 4453,
      "ises": 4454,
      "ado": 4455,
      "bey": 4456,
      "begins": 4457,
      "qual": 4458,
      "anger": 4459,
      "1996": 4460,
      "starting": 4461,
      "allowing": 4462,
      "Acad": 4463,
      "Corps": 4464,
      "composed": 4465,
      "Haifa": 4466,
      "Chicago": 4467,
      "hundred": 4468,
      "sides": 4469,
      "lif": 4470,
      "1997": 4471,
      "ordin": 4472,
      "network": 4473,
      "traditional": 4474,
      "individual": 4475,
      "houses": 4476,
      "Stevens": 4477,
      "sembly": 4478,
      "Taylor": 4479,
      "ires": 4480,
      "rated": 4481,
      "án": 4482,
      "alys": 4483,
      "dem": 4484,
      "vement": 4485,
      "log": 4486,
      "Bey": 4487,
      "continue": 4488,
      "leaders": 4489,
      "nearby": 4490,
      "greater": 4491,
      "Christmas": 4492,
      "Department": 4493,
      "Catholic": 4494,
      "Several": 4495,
      "6th": 4496,
      "AI": 4497,
      "Foot": 4498,
      "Young": 4499,
      "bul": 4500,
      "crow": 4501,
      "really": 4502,
      "genus": 4503,
      "carry": 4504,
      "Colon": 4505,
      "battalion": 4506,
      "faced": 4507,
      "expand": 4508,
      "pil": 4509,
      "tax": 4510,
      "ils": 4511,
      "clim": 4512,
      "evac": 4513,
      "finan": 4514,
      "distin": 4515,
      "target": 4516,
      "Operation": 4517,
      "Galve": 4518,
      "Philipp": 4519,
      "Los": 4520,
      "dated": 4521,
      "hour": 4522,
      "spl": 4523,
      "za": 4524,
      "information": 4525,
      "agan": 4526,
      "iple": 4527,
      "annual": 4528,
      "highly": 4529,
      "onym": 4530,
      "Series": 4531,
      "mist": 4532,
      "nast": 4533,
      "inside": 4534,
      "env": 4535,
      "olf": 4536,
      "artist": 4537,
      "except": 4538,
      "orders": 4539,
      "burg": 4540,
      "casualties": 4541,
      "Out": 4542,
      "thin": 4543,
      "isl": 4544,
      "confir": 4545,
      "concept": 4546,
      "assault": 4547,
      "resulted": 4548,
      "greatest": 4549,
      "Service": 4550,
      "nucle": 4551,
      "impact": 4552,
      "inspired": 4553,
      "Galveston": 4554,
      "Turn": 4555,
      "ki": 4556,
      "kind": 4557,
      "pick": 4558,
      "anta": 4559,
      "regard": 4560,
      "1991": 4561,
      "drum": 4562,
      "metal": 4563,
      "middle": 4564,
      "situation": 4565,
      "photo": 4566,
      "Italian": 4567,
      "Ill": 4568,
      "cat": 4569,
      "cam": 4570,
      "ugu": 4571,
      "yl": 4572,
      "zo": 4573,
      "aces": 4574,
      "ada": 4575,
      "berg": 4576,
      "hero": 4577,
      "aware": 4578,
      "chester": 4579,
      "extended": 4580,
      "Georg": 4581,
      "figures": 4582,
      "Emp": 4583,
      "Saint": 4584,
      "hood": 4585,
      "jun": 4586,
      "pul": 4587,
      "things": 4588,
      "armed": 4589,
      "uries": 4590,
      "deploy": 4591,
      "iva": 4592,
      "180": 4593,
      "attempts": 4594,
      "issues": 4595,
      "gods": 4596,
      "touchdown": 4597,
      "46": 4598,
      "Fre": 4599,
      "Hum": 4600,
      "Tenn": 4601,
      "rich": 4602,
      "anks": 4603,
      "sets": 4604,
      "struction": 4605,
      "something": 4606,
      "headquarters": 4607,
      "services": 4608,
      "eye": 4609,
      "deliver": 4610,
      "core": 4611,
      "naval": 4612,
      "mob": 4613,
      "ester": 4614,
      "render": 4615,
      "struck": 4616,
      "sole": 4617,
      "combat": 4618,
      "horse": 4619,
      "audience": 4620,
      "Party": 4621,
      "sylvan": 4622,
      "78": 4623,
      "Are": 4624,
      "Big": 4625,
      "Long": 4626,
      "Live": 4627,
      "Six": 4628,
      "Villa": 4629,
      "rum": 4630,
      "stating": 4631,
      "isation": 4632,
      "adium": 4633,
      "secret": 4634,
      "div": 4635,
      "rane": 4636,
      "1994": 4637,
      "numerous": 4638,
      "rule": 4639,
      "refused": 4640,
      "Jackson": 4641,
      "needed": 4642,
      "Sovi": 4643,
      "vocals": 4644,
      "Carolina": 4645,
      "security": 4646,
      "Lady": 4647,
      "Smith": 4648,
      "rical": 4649,
      "strict": 4650,
      "eway": 4651,
      "singer": 4652,
      "severe": 4653,
      "Group": 4654,
      "initial": 4655,
      "friends": 4656,
      "heavily": 4657,
      "BA": 4658,
      "Crit": 4659,
      "Dire": 4660,
      "Fl": 4661,
      "Jam": 4662,
      "Ram": 4663,
      "bour": 4664,
      "drew": 4665,
      "kes": 4666,
      "ene": 4667,
      "altar": 4668,
      "contemporary": 4669,
      "residents": 4670,
      "peace": 4671,
      "shire": 4672,
      "intensity": 4673,
      "Alice": 4674,
      "shell": 4675,
      "collection": 4676,
      "invas": 4677,
      "Somer": 4678,
      "Empire": 4679,
      "4th": 4680,
      "Up": 4681,
      "Wel": 4682,
      "kick": 4683,
      "ón": 4684,
      "thes": 4685,
      "enjoy": 4686,
      "Their": 4687,
      "grand": 4688,
      "conditions": 4689,
      "defend": 4690,
      "standard": 4691,
      "variety": 4692,
      "meeting": 4693,
      "separate": 4694,
      "document": 4695,
      "Joseph": 4696,
      "Di": 4697,
      "Rob": 4698,
      "hu": 4699,
      "ocks": 4700,
      "owned": 4701,
      "web": 4702,
      "northwest": 4703,
      "southeast": 4704,
      "declared": 4705,
      "Alex": 4706,
      "husband": 4707,
      "Four": 4708,
      "Games": 4709,
      "Mat": 4710,
      "Nix": 4711,
      "bid": 4712,
      "mile": 4713,
      "pun": 4714,
      "ications": 4715,
      "rot": 4716,
      "offensive": 4717,
      "viewers": 4718,
      "higher": 4719,
      "stitution": 4720,
      "Polish": 4721,
      "Highway": 4722,
      "types": 4723,
      "peaked": 4724,
      "source": 4725,
      "education": 4726,
      "Otto": 4727,
      "slightly": 4728,
      "eu": 4729,
      "ging": 4730,
      "hill": 4731,
      "ka": 4732,
      "acting": 4733,
      "izing": 4734,
      "producer": 4735,
      "presented": 4736,
      "organized": 4737,
      "powerful": 4738,
      "ushed": 4739,
      "studies": 4740,
      "divided": 4741,
      "words": 4742,
      "completely": 4743,
      "reduced": 4744,
      "respectively": 4745,
      "dollar": 4746,
      "wounded": 4747,
      "sylvania": 4748,
      "CA": 4749,
      "Cross": 4750,
      "Civil": 4751,
      "Dj": 4752,
      "Liver": 4753,
      "Little": 4754,
      "Nations": 4755,
      "bat": 4756,
      "carri": 4757,
      "uated": 4758,
      "yn": 4759,
      "ression": 4760,
      "award": 4761,
      "spect": 4762,
      "1992": 4763,
      "officer": 4764,
      "sixth": 4765,
      "controver": 4766,
      "ribution": 4767,
      "Dou": 4768,
      "Gar": 4769,
      "marriage": 4770,
      "alle": 4771,
      "sec": 4772,
      "umn": 4773,
      "ements": 4774,
      "perial": 4775,
      "says": 4776,
      "Cast": 4777,
      "Sir": 4778,
      "Wash": 4779,
      "cad": 4780,
      "eve": 4781,
      "itude": 4782,
      "Alkan": 4783,
      "1990": 4784,
      "asket": 4785,
      "55": 4786,
      "Er": 4787,
      "Soci": 4788,
      "Time": 4789,
      "iny": 4790,
      "inch": 4791,
      "alty": 4792,
      "omer": 4793,
      "estival": 4794,
      "Chris": 4795,
      "means": 4796,
      "architect": 4797,
      "Demo": 4798,
      "elected": 4799,
      "Leg": 4800,
      "maxim": 4801,
      "missed": 4802,
      "strike": 4803,
      "Prince": 4804,
      "combined": 4805,
      "Fam": 4806,
      "Post": 4807,
      "ert": 4808,
      "andid": 4809,
      "aspect": 4810,
      "chor": 4811,
      "sust": 4812,
      "boat": 4813,
      "distance": 4814,
      "continues": 4815,
      "Book": 4816,
      "countries": 4817,
      "copies": 4818,
      "contrast": 4819,
      "Liverpool": 4820,
      "Bor": 4821,
      "Lan": 4822,
      "gam": 4823,
      "vehic": 4824,
      "ousand": 4825,
      "athan": 4826,
      "symb": 4827,
      "pedo": 4828,
      "defense": 4829,
      "Paris": 4830,
      "rights": 4831,
      "Virginia": 4832,
      "Football": 4833,
      "Somerset": 4834,
      "Nixon": 4835,
      "Washington": 4836,
      "42": 4837,
      "Bol": 4838,
      "Burn": 4839,
      "inches": 4840,
      "anas": 4841,
      "advis": 4842,
      "utch": 4843,
      "1970": 4844,
      "levels": 4845,
      "widely": 4846,
      "Histor": 4847,
      "concluded": 4848,
      "transferred": 4849,
      "Busch": 4850,
      "Jul": 4851,
      "Water": 4852,
      "cé": 4853,
      "hi": 4854,
      "pal": 4855,
      "wear": 4856,
      "oft": 4857,
      "urt": 4858,
      "managed": 4859,
      "actually": 4860,
      "portun": 4861,
      "address": 4862,
      "Australians": 4863,
      "activities": 4864,
      "relief": 4865,
      "Queen": 4866,
      "territory": 4867,
      "Southern": 4868,
      "Pennsylvania": 4869,
      "Fow": 4870,
      "Hot": 4871,
      "ease": 4872,
      "ience": 4873,
      "thr": 4874,
      "pret": 4875,
      "mium": 4876,
      "efforts": 4877,
      "Spain": 4878,
      "sexual": 4879,
      "Green": 4880,
      "Mosley": 4881,
      "MA": 4882,
      "ancient": 4883,
      "toward": 4884,
      "heart": 4885,
      "adult": 4886,
      "resh": 4887,
      "annel": 4888,
      "effort": 4889,
      "describes": 4890,
      "Like": 4891,
      "question": 4892,
      "extensive": 4893,
      "Louis": 4894,
      "Naz": 4895,
      "Of": 4896,
      "Prote": 4897,
      "patter": 4898,
      "sense": 4899,
      "ufact": 4900,
      "rect": 4901,
      "reign": 4902,
      "ador": 4903,
      "chair": 4904,
      "exhib": 4905,
      "strated": 4906,
      "attention": 4907,
      "creation": 4908,
      "ledge": 4909,
      "calling": 4910,
      "background": 4911,
      "1942": 4912,
      "Anderson": 4913,
      "ironclad": 4914,
      "rainfall": 4915,
      "torpedo": 4916,
      "vocal": 4917,
      "revealed": 4918,
      "Bon": 4919,
      "Ever": 4920,
      "blood": 4921,
      "rear": 4922,
      "today": 4923,
      "becomes": 4924,
      "bery": 4925,
      "blue": 4926,
      "ification": 4927,
      "resulting": 4928,
      "county": 4929,
      "hands": 4930,
      "mountain": 4931,
      "primarily": 4932,
      "accepted": 4933,
      "Vietnam": 4934,
      "parents": 4935,
      "5th": 4936,
      "96": 4937,
      "Government": 4938,
      "Pop": 4939,
      "WW": 4940,
      "idian": 4941,
      "opportun": 4942,
      "prov": 4943,
      "quality": 4944,
      "eves": 4945,
      "offer": 4946,
      "scient": 4947,
      "mainly": 4948,
      "produce": 4949,
      "Def": 4950,
      "Because": 4951,
      "alongside": 4952,
      "designated": 4953,
      "organization": 4954,
      "capture": 4955,
      "evolution": 4956,
      "advantage": 4957,
      "cis": 4958,
      "dition": 4959,
      "mes": 4960,
      "paper": 4961,
      "rhy": 4962,
      "squadron": 4963,
      "revol": 4964,
      "concent": 4965,
      "prop": 4966,
      "true": 4967,
      "oured": 4968,
      "preser": 4969,
      "visions": 4970,
      "suppl": 4971,
      "appearances": 4972,
      "passing": 4973,
      "tower": 4974,
      "Produ": 4975,
      "trees": 4976,
      "Korean": 4977,
      "square": 4978,
      "Fowler": 4979,
      "7th": 4980,
      "95": 4981,
      "Open": 4982,
      "Tim": 4983,
      "cers": 4984,
      "fish": 4985,
      "color": 4986,
      "featuring": 4987,
      "initi": 4988,
      "sites": 4989,
      "Minnes": 4990,
      "Miami": 4991,
      "Angeles": 4992,
      "affected": 4993,
      "Minnesota": 4994,
      "paid": 4995,
      "piano": 4996,
      "var": 4997,
      "replac": 4998,
      "ena": 4999,
      "roles": 5000,
      "tru": 5001,
      "avi": 5002,
      "prise": 5003,
      "eval": 5004,
      "rance": 5005,
      "observed": 5006,
      "tainment": 5007,
      "practice": 5008,
      "Kent": 5009,
      "Ocean": 5010,
      "Tod": 5011,
      "federal": 5012,
      "lic": 5013,
      "mind": 5014,
      "incorpor": 5015,
      "iles": 5016,
      "charge": 5017,
      "rossing": 5018,
      "identified": 5019,
      "broken": 5020,
      "scoring": 5021,
      "historical": 5022,
      "Captain": 5023,
      "condoms": 5024,
      "Hy": 5025,
      "lb": 5026,
      "link": 5027,
      "sa": 5028,
      "uan": 5029,
      "repe": 5030,
      "restor": 5031,
      "Indu": 5032,
      "ify": 5033,
      "serve": 5034,
      "seasons": 5035,
      "showed": 5036,
      "Manchester": 5037,
      "cathedral": 5038,
      "vessel": 5039,
      "pitch": 5040,
      "represented": 5041,
      "arent": 5042,
      "Scotland": 5043,
      "ceeded": 5044,
      "Academy": 5045,
      "Bint": 5046,
      "Van": 5047,
      "cies": 5048,
      "1920": 5049,
      "mole": 5050,
      "osen": 5051,
      "scale": 5052,
      "News": 5053,
      "extreme": 5054,
      "ironment": 5055,
      "looking": 5056,
      "phoon": 5057,
      "relatively": 5058,
      "Bintulu": 5059,
      "PA": 5060,
      "oo": 5061,
      "oil": 5062,
      "ont": 5063,
      "reception": 5064,
      "alleg": 5065,
      "university": 5066,
      "oph": 5067,
      "excl": 5068,
      "essa": 5069,
      "strugg": 5070,
      "Conf": 5071,
      "defence": 5072,
      "Mean": 5073,
      "apparent": 5074,
      "losing": 5075,
      "mentioned": 5076,
      "ultimately": 5077,
      "invasion": 5078,
      "Field": 5079,
      "Mog": 5080,
      "Nico": 5081,
      "Pan": 5082,
      "brown": 5083,
      "ores": 5084,
      "vation": 5085,
      "zed": 5086,
      "enemy": 5087,
      "ows": 5088,
      "phy": 5089,
      "1941": 5090,
      "Meyer": 5091,
      "Russian": 5092,
      "excav": 5093,
      "Ottoman": 5094,
      "Society": 5095,
      "Bet": 5096,
      "Sum": 5097,
      "Tele": 5098,
      "ror": 5099,
      "onic": 5100,
      "oncé": 5101,
      "opin": 5102,
      "aust": 5103,
      "athlet": 5104,
      "write": 5105,
      "Francis": 5106,
      "influenced": 5107,
      "pondy": 5108,
      "Meridian": 5109,
      "twenty": 5110,
      "telligence": 5111,
      "alysis": 5112,
      "Beyoncé": 5113,
      "crowd": 5114,
      "64": 5115,
      "Far": 5116,
      "Tik": 5117,
      "thousand": 5118,
      "instr": 5119,
      "beer": 5120,
      "delay": 5121,
      "expressed": 5122,
      "Though": 5123,
      "cannot": 5124,
      "proteins": 5125,
      "narrow": 5126,
      "typically": 5127,
      "nuclear": 5128,
      "uzz": 5129,
      "surrounding": 5130,
      "Hawai": 5131,
      "93": 5132,
      "Home": 5133,
      "Kr": 5134,
      "Pet": 5135,
      "cities": 5136,
      "spread": 5137,
      "thir": 5138,
      "alone": 5139,
      "ols": 5140,
      "dissip": 5141,
      "protest": 5142,
      "Churchill": 5143,
      "homes": 5144,
      "kilomet": 5145,
      "adopted": 5146,
      "Adam": 5147,
      "bank": 5148,
      "reaction": 5149,
      "conver": 5150,
      "estic": 5151,
      "bles": 5152,
      "phen": 5153,
      "forest": 5154,
      "doing": 5155,
      "1986": 5156,
      "floor": 5157,
      "successfully": 5158,
      "Richmond": 5159,
      "Temple": 5160,
      "Soviet": 5161,
      "maximum": 5162,
      "Dam": 5163,
      "cere": 5164,
      "hed": 5165,
      "recon": 5166,
      "recomm": 5167,
      "uten": 5168,
      "shore": 5169,
      "neigh": 5170,
      "artists": 5171,
      "avoid": 5172,
      "grass": 5173,
      "contact": 5174,
      "thens": 5175,
      "founded": 5176,
      "direction": 5177,
      "1940": 5178,
      "legisl": 5179,
      "tried": 5180,
      "officials": 5181,
      "Class": 5182,
      "paint": 5183,
      "progress": 5184,
      "Welsh": 5185,
      "Men": 5186,
      "Ox": 5187,
      "Pit": 5188,
      "Sil": 5189,
      "eth": 5190,
      "haw": 5191,
      "sister": 5192,
      "wick": 5193,
      "edition": 5194,
      "repair": 5195,
      "manufact": 5196,
      "actors": 5197,
      "guest": 5198,
      "themes": 5199,
      "Commun": 5200,
      "letter": 5201,
      "reports": 5202,
      "titled": 5203,
      "personnel": 5204,
      "Andrew": 5205,
      "earliest": 5206,
      "commissioned": 5207,
      "nasty": 5208,
      "Lock": 5209,
      "Ul": 5210,
      "folk": 5211,
      "rating": 5212,
      "ona": 5213,
      "rev": 5214,
      "Thunder": 5215,
      "Ann": 5216,
      "transl": 5217,
      "operated": 5218,
      "Marine": 5219,
      "Blue": 5220,
      "pursu": 5221,
      "sources": 5222,
      "abandoned": 5223,
      "necessary": 5224,
      "District": 5225,
      "financial": 5226,
      "happ": 5227,
      "sac": 5228,
      "winter": 5229,
      "issip": 5230,
      "proved": 5231,
      "emphas": 5232,
      "1988": 5233,
      "officially": 5234,
      "defensive": 5235,
      "structures": 5236,
      "currently": 5237,
      "achieved": 5238,
      "Mississip": 5239,
      "girl": 5240,
      "Illino": 5241,
      "asketball": 5242,
      "Tikal": 5243,
      "Down": 5244,
      "Ka": 5245,
      "Kir": 5246,
      "Lie": 5247,
      "SR": 5248,
      "Ven": 5249,
      "Way": 5250,
      "hang": 5251,
      "ni": 5252,
      "wit": 5253,
      "inner": 5254,
      "ulations": 5255,
      "otes": 5256,
      "oppon": 5257,
      "obtain": 5258,
      "specim": 5259,
      "roads": 5260,
      "passes": 5261,
      "prominent": 5262,
      "shortly": 5263,
      "street": 5264,
      "pieces": 5265,
      "Middle": 5266,
      "Mogad": 5267,
      "Fred": 5268,
      "Kar": 5269,
      "Ob": 5270,
      "oul": 5271,
      "older": 5272,
      "conv": 5273,
      "movie": 5274,
      "shap": 5275,
      "ems": 5276,
      "attended": 5277,
      "titles": 5278,
      "basis": 5279,
      "function": 5280,
      "focus": 5281,
      "install": 5282,
      "Rhodes": 5283,
      "Records": 5284,
      "Fleet": 5285,
      "newspaper": 5286,
      "Mississippi": 5287,
      "600": 5288,
      "Avenue": 5289,
      "Ball": 5290,
      "MD": 5291,
      "candid": 5292,
      "wen": 5293,
      "your": 5294,
      "alions": 5295,
      "perman": 5296,
      "weak": 5297,
      "anning": 5298,
      "captain": 5299,
      "Secret": 5300,
      "Johnson": 5301,
      "places": 5302,
      "broke": 5303,
      "honor": 5304,
      "flooding": 5305,
      "Braa": 5306,
      "Cle": 5307,
      "Gall": 5308,
      "Ve": 5309,
      "lap": 5310,
      "mort": 5311,
      "rub": 5312,
      "xenon": 5313,
      "height": 5314,
      "artic": 5315,
      "phil": 5316,
      "raid": 5317,
      "1960s": 5318,
      "ricket": 5319,
      "dedicated": 5320,
      "fruit": 5321,
      "tournament": 5322,
      "53": 5323,
      "56": 5324,
      "HMS": 5325,
      "Si": 5326,
      "Sup": 5327,
      "Slam": 5328,
      "farm": 5329,
      "ensif": 5330,
      "asc": 5331,
      "comedy": 5332,
      "shape": 5333,
      "intensif": 5334,
      "mechan": 5335,
      "Alli": 5336,
      "gency": 5337,
      "Engine": 5338,
      "trial": 5339,
      "plement": 5340,
      "Edward": 5341,
      "authorities": 5342,
      "cultural": 5343,
      "potential": 5344,
      "determined": 5345,
      "Turner": 5346,
      "Bre": 5347,
      "Den": 5348,
      "GA": 5349,
      "VD": 5350,
      "big": 5351,
      "lane": 5352,
      "ote": 5353,
      "san": 5354,
      "arrest": 5355,
      "ental": 5356,
      "dete": 5357,
      "else": 5358,
      "plat": 5359,
      "lives": 5360,
      "akapo": 5361,
      "ounds": 5362,
      "landing": 5363,
      "Austri": 5364,
      "door": 5365,
      "1980s": 5366,
      "leader": 5367,
      "inkel": 5368,
      "Week": 5369,
      "Team": 5370,
      "Simp": 5371,
      "consisted": 5372,
      "straight": 5373,
      "Mogadish": 5374,
      "Lar": 5375,
      "More": 5376,
      "ridge": 5377,
      "wave": 5378,
      "inth": 5379,
      "ening": 5380,
      "advert": 5381,
      "imag": 5382,
      "consecut": 5383,
      "spot": 5384,
      "workers": 5385,
      "athus": 5386,
      "Short": 5387,
      "causing": 5388,
      "grew": 5389,
      "royal": 5390,
      "industri": 5391,
      "society": 5392,
      "Townsend": 5393,
      "occasion": 5394,
      "Rosebery": 5395,
      "couple": 5396,
      "Bost": 5397,
      "Nes": 5398,
      "mess": 5399,
      "smo": 5400,
      "sales": 5401,
      "onom": 5402,
      "images": 5403,
      "union": 5404,
      "18th": 5405,
      "premi": 5406,
      "Americans": 5407,
      "seconds": 5408,
      "claims": 5409,
      "mounted": 5410,
      "Walpole": 5411,
      "individuals": 5412,
      "Further": 5413,
      "weapons": 5414,
      "Meyerbeer": 5415,
      "Mogadishu": 5416,
      "Bond": 5417,
      "Finkel": 5418,
      "Mah": 5419,
      "Max": 5420,
      "ares": 5421,
      "ba": 5422,
      "dut": 5423,
      "laid": 5424,
      "tact": 5425,
      "ule": 5426,
      "tery": 5427,
      "umber": 5428,
      "prec": 5429,
      "buried": 5430,
      "Apple": 5431,
      "possibly": 5432,
      "physical": 5433,
      "Nicole": 5434,
      "ceremon": 5435,
      "Finkelstein": 5436,
      "43": 5437,
      "AF": 5438,
      "Mort": 5439,
      "Tessa": 5440,
      "Yue": 5441,
      "fiction": 5442,
      "gained": 5443,
      "ole": 5444,
      "pup": 5445,
      "sand": 5446,
      "lying": 5447,
      "ura": 5448,
      "unknown": 5449,
      "conve": 5450,
      "illu": 5451,
      "ardin": 5452,
      "fired": 5453,
      "ached": 5454,
      "poly": 5455,
      "content": 5456,
      "contain": 5457,
      "monument": 5458,
      "condition": 5459,
      "bute": 5460,
      "Shiva": 5461,
      "helm": 5462,
      "1985": 5463,
      "1944": 5464,
      "1970s": 5465,
      "reaching": 5466,
      "cases": 5467,
      "graphic": 5468,
      "projects": 5469,
      "management": 5470,
      "schedul": 5471,
      "confirmed": 5472,
      "kilometres": 5473,
      "consecutive": 5474,
      "41": 5475,
      "DVD": 5476,
      "Night": 5477,
      "governor": 5478,
      "hospital": 5479,
      "eds": 5480,
      "acad": 5481,
      "iana": 5482,
      "princ": 5483,
      "minim": 5484,
      "follows": 5485,
      "vention": 5486,
      "killing": 5487,
      "frag": 5488,
      "suggests": 5489,
      "criticized": 5490,
      "rapidly": 5491,
      "BBC": 5492,
      "Eli": 5493,
      "Han": 5494,
      "Hait": 5495,
      "Ly": 5496,
      "Mass": 5497,
      "Raj": 5498,
      "kept": 5499,
      "nom": 5500,
      "encour": 5501,
      "rose": 5502,
      "sections": 5503,
      "abama": 5504,
      "speak": 5505,
      "Alabama": 5506,
      "foreign": 5507,
      "visited": 5508,
      "supply": 5509,
      "steam": 5510,
      "prompt": 5511,
      "versions": 5512,
      "Portugu": 5513,
      "Horse": 5514,
      "collap": 5515,
      "battleship": 5516,
      "Meanwhile": 5517,
      "Illinois": 5518,
      "98": 5519,
      "Cy": 5520,
      "Dev": 5521,
      "Due": 5522,
      "Mel": 5523,
      "Sor": 5524,
      "Writ": 5525,
      "dress": 5526,
      "museum": 5527,
      "rative": 5528,
      "unte": 5529,
      "Independ": 5530,
      "Stone": 5531,
      "awa": 5532,
      "views": 5533,
      "USA": 5534,
      "require": 5535,
      "protein": 5536,
      "Eastern": 5537,
      "soundtrack": 5538,
      "connected": 5539,
      "walls": 5540,
      "sports": 5541,
      "freeway": 5542,
      "equipment": 5543,
      "Philippines": 5544,
      "Democr": 5545,
      "Braathens": 5546,
      "Portuguese": 5547,
      "120": 5548,
      "51": 5549,
      "Tu": 5550,
      "ahead": 5551,
      "tomb": 5552,
      "entrance": 5553,
      "rif": 5554,
      "otional": 5555,
      "resist": 5556,
      "disease": 5557,
      "temple": 5558,
      "flank": 5559,
      "lock": 5560,
      "1964": 5561,
      "Form": 5562,
      "spirit": 5563,
      "Background": 5564,
      "Ret": 5565,
      "bitt": 5566,
      "sought": 5567,
      "spring": 5568,
      "tun": 5569,
      "wild": 5570,
      "yellow": 5571,
      "energy": 5572,
      "ingu": 5573,
      "agement": 5574,
      "resol": 5575,
      "ighth": 5576,
      "outs": 5577,
      "loy": 5578,
      "science": 5579,
      "Assembly": 5580,
      "1987": 5581,
      "Bridge": 5582,
      "letters": 5583,
      "castle": 5584,
      "planet": 5585,
      "environment": 5586,
      "sustained": 5587,
      "Fox": 5588,
      "Op": 5589,
      "Public": 5590,
      "Rol": 5591,
      "UN": 5592,
      "ec": 5593,
      "fought": 5594,
      "yle": 5595,
      "adel": 5596,
      "opposed": 5597,
      "emperor": 5598,
      "landfall": 5599,
      "weather": 5600,
      "newly": 5601,
      "promoted": 5602,
      "ushing": 5603,
      "stones": 5604,
      "experienced": 5605,
      "debuted": 5606,
      "measure": 5607,
      "journal": 5608,
      "AD": 5609,
      "Cre": 5610,
      "Cra": 5611,
      "arms": 5612,
      "ilies": 5613,
      "chosen": 5614,
      "shif": 5615,
      "regions": 5616,
      "Reception": 5617,
      "ologist": 5618,
      "simply": 5619,
      "pitched": 5620,
      "join": 5621,
      "reference": 5622,
      "authority": 5623,
      "suffic": 5624,
      "extra": 5625,
      "economic": 5626,
      "Olympic": 5627,
      "moment": 5628,
      "onymous": 5629,
      "Sub": 5630,
      "ange": 5631,
      "aling": 5632,
      "asure": 5633,
      "decor": 5634,
      "neut": 5635,
      "emic": 5636,
      "twice": 5637,
      "finish": 5638,
      "albums": 5639,
      "returning": 5640,
      "famous": 5641,
      "domestic": 5642,
      "advanced": 5643,
      "student": 5644,
      "holds": 5645,
      "teenth": 5646,
      "Valley": 5647,
      "dropped": 5648,
      "multiple": 5649,
      "prepared": 5650,
      "victim": 5651,
      "granted": 5652,
      "Each": 5653,
      "SP": 5654,
      "Tint": 5655,
      "Zhou": 5656,
      "catch": 5657,
      "sail": 5658,
      "tail": 5659,
      "theless": 5660,
      "stood": 5661,
      "amph": 5662,
      "beaut": 5663,
      "chief": 5664,
      "acks": 5665,
      "brigade": 5666,
      "normal": 5667,
      "Fey": 5668,
      "controlled": 5669,
      "growing": 5670,
      "employed": 5671,
      "injury": 5672,
      "seems": 5673,
      "occupied": 5674,
      "benef": 5675,
      "nominated": 5676,
      "utenant": 5677,
      "Boston": 5678,
      "Even": 5679,
      "Rome": 5680,
      "Sat": 5681,
      "dates": 5682,
      "thur": 5683,
      "iced": 5684,
      "urban": 5685,
      "unique": 5686,
      "rival": 5687,
      "oppos": 5688,
      "share": 5689,
      "ender": 5690,
      "containing": 5691,
      "therefore": 5692,
      "1984": 5693,
      "1972": 5694,
      "Clark": 5695,
      "Mountain": 5696,
      "growth": 5697,
      "flying": 5698,
      "poetry": 5699,
      "Tintin": 5700,
      "Asia": 5701,
      "Fer": 5702,
      "Oda": 5703,
      "TC": 5704,
      "ao": 5705,
      "kg": 5706,
      "mast": 5707,
      "beach": 5708,
      "ola": 5709,
      "Argent": 5710,
      "orses": 5711,
      "Only": 5712,
      "calls": 5713,
      "Before": 5714,
      "1947": 5715,
      "starts": 5716,
      "depth": 5717,
      "results": 5718,
      "explained": 5719,
      "Addition": 5720,
      "maintained": 5721,
      "Ceres": 5722,
      "negative": 5723,
      "settlement": 5724,
      "Varanas": 5725,
      "Varanasi": 5726,
      "Bir": 5727,
      "Eva": 5728,
      "Good": 5729,
      "Ken": 5730,
      "Mur": 5731,
      "master": 5732,
      "py": 5733,
      "rig": 5734,
      "sn": 5735,
      "usual": 5736,
      "mosp": 5737,
      "astic": 5738,
      "note": 5739,
      "vised": 5740,
      "filmed": 5741,
      "council": 5742,
      "marks": 5743,
      "Origin": 5744,
      "incident": 5745,
      "historian": 5746,
      "religion": 5747,
      "knowledge": 5748,
      "nospondy": 5749,
      "Nesbitt": 5750,
      "Odaen": 5751,
      "yan": 5752,
      "arrang": 5753,
      "acing": 5754,
      "belong": 5755,
      "exped": 5756,
      "disp": 5757,
      "writes": 5758,
      "Develop": 5759,
      "setting": 5760,
      "km2": 5761,
      "fields": 5762,
      "problem": 5763,
      "Among": 5764,
      "Torres": 5765,
      "argued": 5766,
      "independent": 5767,
      "classified": 5768,
      "website": 5769,
      "Odaenathus": 5770,
      "130": 5771,
      "CD": 5772,
      "Dream": 5773,
      "Fant": 5774,
      "Jour": 5775,
      "Jup": 5776,
      "NL": 5777,
      "Sky": 5778,
      "govern": 5779,
      "oth": 5780,
      "pict": 5781,
      "tank": 5782,
      "tanks": 5783,
      "inem": 5784,
      "rejected": 5785,
      "atops": 5786,
      "roof": 5787,
      "seg": 5788,
      "seas": 5789,
      "imony": 5790,
      "odon": 5791,
      "assass": 5792,
      "Arthur": 5793,
      "news": 5794,
      "element": 5795,
      "1989": 5796,
      "1960": 5797,
      "1969": 5798,
      "borough": 5799,
      "families": 5800,
      "supporting": 5801,
      "Wilhelm": 5802,
      "DuMont": 5803,
      "animal": 5804,
      "Sarnia": 5805,
      "Office": 5806,
      "championship": 5807,
      "Forest": 5808,
      "66": 5809,
      "Iron": 5810,
      "Jon": 5811,
      "Tru": 5812,
      "fat": 5813,
      "rise": 5814,
      "ounder": 5815,
      "umes": 5816,
      "aved": 5817,
      "iff": 5818,
      "achie": 5819,
      "attend": 5820,
      "desc": 5821,
      "retired": 5822,
      "medical": 5823,
      "Palest": 5824,
      "collabor": 5825,
      "happen": 5826,
      "increasingly": 5827,
      "temperature": 5828,
      "Gulf": 5829,
      "Dar": 5830,
      "Dom": 5831,
      "Dest": 5832,
      "Ru": 5833,
      "bud": 5834,
      "bishop": 5835,
      "ya": 5836,
      "analysis": 5837,
      "tex": 5838,
      "propos": 5839,
      "train": 5840,
      "perfect": 5841,
      "auth": 5842,
      "Once": 5843,
      "insula": 5844,
      "headed": 5845,
      "Constant": 5846,
      "Conference": 5847,
      "sky": 5848,
      "Airport": 5849,
      "Minister": 5850,
      "travel": 5851,
      "selling": 5852,
      "haps": 5853,
      "bottom": 5854,
      "frequently": 5855,
      "Oxford": 5856,
      "85": 5857,
      "IV": 5858,
      "Imag": 5859,
      "Lew": 5860,
      "Mic": 5861,
      "glo": 5862,
      "kakapo": 5863,
      "matter": 5864,
      "rab": 5865,
      "sli": 5866,
      "thew": 5867,
      "isol": 5868,
      "chance": 5869,
      "iments": 5870,
      "strate": 5871,
      "ranged": 5872,
      "flag": 5873,
      "1990s": 5874,
      "Isa": 5875,
      "battalions": 5876,
      "Admir": 5877,
      "ovic": 5878,
      "graded": 5879,
      "8th": 5880,
      "Ban": 5881,
      "Dun": 5882,
      "FE": 5883,
      "Line": 5884,
      "Oma": 5885,
      "Ten": 5886,
      "basketball": 5887,
      "resem": 5888,
      "stro": 5889,
      "lection": 5890,
      "decre": 5891,
      "creating": 5892,
      "Italy": 5893,
      "finals": 5894,
      "aired": 5895,
      "Album": 5896,
      "icks": 5897,
      "singles": 5898,
      "paralle": 5899,
      "belief": 5900,
      "believe": 5901,
      "System": 5902,
      "drive": 5903,
      "strengthen": 5904,
      "Scottish": 5905,
      "failure": 5906,
      "challeng": 5907,
      "policy": 5908,
      "weakened": 5909,
      "cadmium": 5910,
      "Allied": 5911,
      "scheduled": 5912,
      "Jupiter": 5913,
      "Ath": 5914,
      "Baby": 5915,
      "Dutch": 5916,
      "Gord": 5917,
      "Rog": 5918,
      "cited": 5919,
      "dan": 5920,
      "fied": 5921,
      "fung": 5922,
      "kare": 5923,
      "encounter": 5924,
      "seek": 5925,
      "contest": 5926,
      "Innis": 5927,
      "quake": 5928,
      "Child": 5929,
      "herself": 5930,
      "compar": 5931,
      "izes": 5932,
      "colony": 5933,
      "submar": 5934,
      "ideas": 5935,
      "azz": 5936,
      "serving": 5937,
      "value": 5938,
      "reflect": 5939,
      "agreement": 5940,
      "entirely": 5941,
      "Final": 5942,
      "subsequent": 5943,
      "Helms": 5944,
      "turret": 5945,
      "Bowl": 5946,
      "Family": 5947,
      "Omaha": 5948,
      "62": 5949,
      "Greek": 5950,
      "IS": 5951,
      "Lin": 5952,
      "Lis": 5953,
      "NH": 5954,
      "aer": 5955,
      "cust": 5956,
      "dream": 5957,
      "nic": 5958,
      "restrict": 5959,
      "esc": 5960,
      "heard": 5961,
      "accompan": 5962,
      "deck": 5963,
      "Institute": 5964,
      "Chap": 5965,
      "firm": 5966,
      "Stan": 5967,
      "contained": 5968,
      "contributed": 5969,
      "disc": 5970,
      "singing": 5971,
      "solo": 5972,
      "wooden": 5973,
      "popularity": 5974,
      "favour": 5975,
      "Horn": 5976,
      "senior": 5977,
      "PlayStation": 5978,
      "participated": 5979,
      "Victoria": 5980,
      "battery": 5981,
      "Bas": 5982,
      "Bishop": 5983,
      "CE": 5984,
      "Vide": 5985,
      "ech": 5986,
      "lav": 5987,
      "editor": 5988,
      "stages": 5989,
      "chose": 5990,
      "agent": 5991,
      "iding": 5992,
      "ria": 5993,
      "rence": 5994,
      "izations": 5995,
      "1981": 5996,
      "southwest": 5997,
      "allows": 5998,
      "Perón": 5999,
      "seventh": 6000,
      "significantly": 6001,
      "improve": 6002,
      "literature": 6003,
      "Jeff": 6004,
      "witness": 6005,
      "shaped": 6006,
      "77": 6007,
      "Governor": 6008,
      "Mong": 6009,
      "fox": 6010,
      "gather": 6011,
      "hur": 6012,
      "march": 6013,
      "advent": 6014,
      "deg": 6015,
      "oren": 6016,
      "crete": 6017,
      "guard": 6018,
      "phia": 6019,
      "capable": 6020,
      "Pho": 6021,
      "ski": 6022,
      "missions": 6023,
      "Williams": 6024,
      "animals": 6025,
      "goti": 6026,
      "Mike": 6027,
      "phase": 6028,
      "McCall": 6029,
      "innings": 6030,
      "responded": 6031,
      "Congress": 6032,
      "filled": 6033,
      "adelphia": 6034,
      "Gordon": 6035,
      "94": 6036,
      "ERA": 6037,
      "Gir": 6038,
      "Lester": 6039,
      "Never": 6040,
      "Rif": 6041,
      "iro": 6042,
      "labor": 6043,
      "sun": 6044,
      "ua": 6045,
      "1918": 6046,
      "acts": 6047,
      "awards": 6048,
      "timore": 6049,
      "Anth": 6050,
      "regarded": 6051,
      "ashion": 6052,
      "Cardiff": 6053,
      "simple": 6054,
      "publication": 6055,
      "systems": 6056,
      "college": 6057,
      "commonly": 6058,
      "issance": 6059,
      "losses": 6060,
      "recognized": 6061,
      "Malay": 6062,
      "Baltimore": 6063,
      "Bank": 6064,
      "Fall": 6065,
      "Hart": 6066,
      "RE": 6067,
      "cot": 6068,
      "rey": 6069,
      "stations": 6070,
      "itan": 6071,
      "lys": 6072,
      "ressive": 6073,
      "aine": 6074,
      "ansas": 6075,
      "ween": 6076,
      "Arm": 6077,
      "clean": 6078,
      "Cole": 6079,
      "apping": 6080,
      "historic": 6081,
      "property": 6082,
      "Egyptian": 6083,
      "supplies": 6084,
      "54": 6085,
      "700": 6086,
      "Gard": 6087,
      "Mu": 6088,
      "Ros": 6089,
      "Rih": 6090,
      "fresh": 6091,
      "han": 6092,
      "map": 6093,
      "virt": 6094,
      "atus": 6095,
      "atmosp": 6096,
      "semi": 6097,
      "oms": 6098,
      "wides": 6099,
      "ays": 6100,
      "agric": 6101,
      "negoti": 6102,
      "engaged": 6103,
      "hydro": 6104,
      "risk": 6105,
      "deaths": 6106,
      "facilities": 6107,
      "collected": 6108,
      "declined": 6109,
      "layer": 6110,
      "painting": 6111,
      "Hamels": 6112,
      "patro": 6113,
      "model": 6114,
      "Daniel": 6115,
      "remn": 6116,
      "briefly": 6117,
      "Martin": 6118,
      "scholar": 6119,
      "purchased": 6120,
      "Rihanna": 6121,
      "agricult": 6122,
      "Broad": 6123,
      "Fu": 6124,
      "Five": 6125,
      "Greg": 6126,
      "Press": 6127,
      "Revolution": 6128,
      "fare": 6129,
      "fict": 6130,
      "sist": 6131,
      "theory": 6132,
      "edar": 6133,
      "aret": 6134,
      "udd": 6135,
      "brary": 6136,
      "Also": 6137,
      "End": 6138,
      "draft": 6139,
      "secondary": 6140,
      "160": 6141,
      "choice": 6142,
      "1943": 6143,
      "description": 6144,
      "1968": 6145,
      "green": 6146,
      "Coast": 6147,
      "People": 6148,
      "effective": 6149,
      "responsib": 6150,
      "Mounted": 6151,
      "RAAF": 6152,
      "technique": 6153,
      "poems": 6154,
      "Swed": 6155,
      "multi": 6156,
      "recently": 6157,
      "slowly": 6158,
      "Croatia": 6159,
      "Entertainment": 6160,
      "thesis": 6161,
      "Djed": 6162,
      "Between": 6163,
      "Lieutenant": 6164,
      "budget": 6165,
      "Rail": 6166,
      "fal": 6167,
      "fair": 6168,
      "ii": 6169,
      "rine": 6170,
      "sens": 6171,
      "iring": 6172,
      "ager": 6173,
      "notable": 6174,
      "auto": 6175,
      "coal": 6176,
      "highlight": 6177,
      "publish": 6178,
      "17th": 6179,
      "steel": 6180,
      "1965": 6181,
      "protection": 6182,
      "armor": 6183,
      "gives": 6184,
      "turns": 6185,
      "frame": 6186,
      "holding": 6187,
      "Philadelphia": 6188,
      "eyes": 6189,
      "focused": 6190,
      "Premi": 6191,
      "McCart": 6192,
      "treatment": 6193,
      "Imperial": 6194,
      "beyond": 6195,
      "expanded": 6196,
      "aspects": 6197,
      "Today": 6198,
      "Summer": 6199,
      "degree": 6200,
      "Djedkare": 6201,
      "800": 6202,
      "Band": 6203,
      "Hib": 6204,
      "Native": 6205,
      "Well": 6206,
      "crop": 6207,
      "horses": 6208,
      "ju": 6209,
      "knot": 6210,
      "atop": 6211,
      "icial": 6212,
      "acres": 6213,
      "seat": 6214,
      "oldest": 6215,
      "trou": 6216,
      "awn": 6217,
      "district": 6218,
      "worldwide": 6219,
      "1939": 6220,
      "cells": 6221,
      "executive": 6222,
      "adapt": 6223,
      "69": 6224,
      "71": 6225,
      "AR": 6226,
      "Hung": 6227,
      "Loc": 6228,
      "Ron": 6229,
      "crossing": 6230,
      "daily": 6231,
      "eas": 6232,
      "pack": 6233,
      "tip": 6234,
      "uate": 6235,
      "zer": 6236,
      "repl": 6237,
      "del": 6238,
      "trap": 6239,
      "illo": 6240,
      "owners": 6241,
      "elled": 6242,
      "crimin": 6243,
      "arrival": 6244,
      "trip": 6245,
      "passeng": 6246,
      "promotion": 6247,
      "finds": 6248,
      "introduction": 6249,
      "existing": 6250,
      "billion": 6251,
      "Turk": 6252,
      "Area": 6253,
      "Video": 6254,
      "61": 6255,
      "Bart": 6256,
      "OT": 6257,
      "Oh": 6258,
      "Tet": 6259,
      "dance": 6260,
      "hall": 6261,
      "mut": 6262,
      "males": 6263,
      "inscript": 6264,
      "arian": 6265,
      "Theatre": 6266,
      "ulate": 6267,
      "1914": 6268,
      "prot": 6269,
      "udes": 6270,
      "prising": 6271,
      "roughly": 6272,
      "parliament": 6273,
      "servation": 6274,
      "distingu": 6275,
      "decades": 6276,
      "iversary": 6277,
      "Steve": 6278,
      "turning": 6279,
      "improved": 6280,
      "launch": 6281,
      "WWE": 6282,
      "philos": 6283,
      "Applewhite": 6284,
      "nospondyls": 6285,
      "Ali": 6286,
      "Festival": 6287,
      "Mend": 6288,
      "NBA": 6289,
      "Sus": 6290,
      "UB": 6291,
      "ito": 6292,
      "ras": 6293,
      "tav": 6294,
      "tree": 6295,
      "intelligence": 6296,
      "stable": 6297,
      "stret": 6298,
      "iled": 6299,
      "aded": 6300,
      "lywood": 6301,
      "urb": 6302,
      "rian": 6303,
      "abo": 6304,
      "modi": 6305,
      "aka": 6306,
      "actress": 6307,
      "iful": 6308,
      "computer": 6309,
      "presents": 6310,
      "display": 6311,
      "visual": 6312,
      "Commit": 6313,
      "filming": 6314,
      "viewed": 6315,
      "1946": 6316,
      "developing": 6317,
      "restaur": 6318,
      "protect": 6319,
      "Andy": 6320,
      "finding": 6321,
      "gradually": 6322,
      "SAFE": 6323,
      "planning": 6324,
      "accident": 6325,
      "possibility": 6326,
      "1950s": 6327,
      "Commonwealth": 6328,
      "Throughout": 6329,
      "converted": 6330,
      "Development": 6331,
      "Athlet": 6332,
      "110": 6333,
      "Dod": 6334,
      "Fish": 6335,
      "Nich": 6336,
      "Rel": 6337,
      "Vill": 6338,
      "Will": 6339,
      "din": 6340,
      "lit": 6341,
      "sul": 6342,
      "von": 6343,
      "wait": 6344,
      "ía": 6345,
      "outer": 6346,
      "ider": 6347,
      "neck": 6348,
      "aste": 6349,
      "centuries": 6350,
      "sions": 6351,
      "12th": 6352,
      "1971": 6353,
      "volunte": 6354,
      "explos": 6355,
      "fellow": 6356,
      "stopped": 6357,
      "1930s": 6358,
      "Production": 6359,
      "widespread": 6360,
      "Abu": 6361,
      "Domin": 6362,
      "Rod": 6363,
      "cit": 6364,
      "egg": 6365,
      "sort": 6366,
      "tin": 6367,
      "recru": 6368,
      "ardi": 6369,
      "begun": 6370,
      "concrete": 6371,
      "plain": 6372,
      "neither": 6373,
      "ava": 6374,
      "assy": 6375,
      "guan": 6376,
      "prefer": 6377,
      "cool": 6378,
      "dram": 6379,
      "producers": 6380,
      "adding": 6381,
      "1980": 6382,
      "receiving": 6383,
      "breeding": 6384,
      "tells": 6385,
      "composition": 6386,
      "rooms": 6387,
      "burns": 6388,
      "Belg": 6389,
      "silver": 6390,
      "reinforce": 6391,
      "delivered": 6392,
      "pattern": 6393,
      "72": 6394,
      "89": 6395,
      "Ari": 6396,
      "Nat": 6397,
      "Upon": 6398,
      "Xe": 6399,
      "fant": 6400,
      "fuel": 6401,
      "mate": 6402,
      "save": 6403,
      "til": 6404,
      "tack": 6405,
      "table": 6406,
      "uct": 6407,
      "itors": 6408,
      "demo": 6409,
      "deities": 6410,
      "cong": 6411,
      "elimin": 6412,
      "Ind": 6413,
      "acted": 6414,
      "angers": 6415,
      "Arts": 6416,
      "What": 6417,
      "1975": 6418,
      "volume": 6419,
      "Juan": 6420,
      "kills": 6421,
      "lasted": 6422,
      "pitcher": 6423,
      "Project": 6424,
      "drawn": 6425,
      "Barrow": 6426,
      "rivers": 6427,
      "females": 6428,
      "Magazine": 6429,
      "colonial": 6430,
      "dominated": 6431,
      "sculpture": 6432,
      "Lewis": 6433,
      "59": 6434,
      "Base": 6435,
      "Cold": 6436,
      "DS": 6437,
      "FC": 6438,
      "Hell": 6439,
      "Jes": 6440,
      "Mir": 6441,
      "Row": 6442,
      "dog": 6443,
      "gro": 6444,
      "ji": 6445,
      "mical": 6446,
      "ancy": 6447,
      "remo": 6448,
      "afety": 6449,
      "anything": 6450,
      "anned": 6451,
      "charges": 6452,
      "borne": 6453,
      "Columb": 6454,
      "purpose": 6455,
      "ruled": 6456,
      "violence": 6457,
      "Cambodi": 6458,
      "independence": 6459,
      "faith": 6460,
      "escape": 6461,
      "vehicles": 6462,
      "exclus": 6463,
      "accompanied": 6464,
      "58": 6465,
      "Cardin": 6466,
      "Friend": 6467,
      "Gil": 6468,
      "IG": 6469,
      "Nathan": 6470,
      "Ol": 6471,
      "Wall": 6472,
      "cance": 6473,
      "cricket": 6474,
      "dry": 6475,
      "hired": 6476,
      "mine": 6477,
      "infr": 6478,
      "anth": 6479,
      "mod": 6480,
      "tra": 6481,
      "forming": 6482,
      "substant": 6483,
      "trying": 6484,
      "perior": 6485,
      "serves": 6486,
      "restling": 6487,
      "campus": 6488,
      "humans": 6489,
      "massive": 6490,
      "Keats": 6491,
      "learned": 6492,
      "adapted": 6493,
      "Dougl": 6494,
      "paintings": 6495,
      "convoy": 6496,
      "81": 6497,
      "Hal": 6498,
      "Kers": 6499,
      "Mario": 6500,
      "Wind": 6501,
      "bought": 6502,
      "data": 6503,
      "iers": 6504,
      "ceme": 6505,
      "uma": 6506,
      "shop": 6507,
      "twel": 6508,
      "strateg": 6509,
      "kee": 6510,
      "nothing": 6511,
      "visible": 6512,
      "symp": 6513,
      "goes": 6514,
      "opera": 6515,
      "1966": 6516,
      "Board": 6517,
      "importance": 6518,
      "combination": 6519,
      "surviv": 6520,
      "existence": 6521,
      "crossed": 6522,
      "distinct": 6523,
      "junction": 6524,
      "fictional": 6525,
      "Hard": 6526,
      "Low": 6527,
      "Sm": 6528,
      "branch": 6529,
      "nur": 6530,
      "erc": 6531,
      "onna": 6532,
      "amber": 6533,
      "olis": 6534,
      "1916": 6535,
      "ighter": 6536,
      "expen": 6537,
      "perhaps": 6538,
      "underground": 6539,
      "1945": 6540,
      "Color": 6541,
      "protected": 6542,
      "closely": 6543,
      "criticism": 6544,
      "survived": 6545,
      "namese": 6546,
      "Vietnamese": 6547,
      "reasons": 6548,
      "Colonel": 6549,
      "Crown": 6550,
      "Hon": 6551,
      "Late": 6552,
      "MTV": 6553,
      "Ridge": 6554,
      "bin": 6555,
      "bone": 6556,
      "bass": 6557,
      "dict": 6558,
      "dating": 6559,
      "jack": 6560,
      "nie": 6561,
      "sin": 6562,
      "uff": 6563,
      "wed": 6564,
      "wins": 6565,
      "remix": 6566,
      "enge": 6567,
      "accur": 6568,
      "accompl": 6569,
      "univers": 6570,
      "conspir": 6571,
      "ctors": 6572,
      "1915": 6573,
      "Chart": 6574,
      "brid": 6575,
      "scar": 6576,
      "intersection": 6577,
      "consists": 6578,
      "Lee": 6579,
      "capac": 6580,
      "mush": 6581,
      "covering": 6582,
      "missing": 6583,
      "1973": 6584,
      "1967": 6585,
      "Islands": 6586,
      "aurus": 6587,
      "faces": 6588,
      "skin": 6589,
      "involvement": 6590,
      "decline": 6591,
      "provides": 6592,
      "Songs": 6593,
      "Walter": 6594,
      "defined": 6595,
      "performing": 6596,
      "archaeological": 6597,
      "susp": 6598,
      "shooting": 6599,
      "secure": 6600,
      "52": 6601,
      "Cub": 6602,
      "Ray": 6603,
      "UTC": 6604,
      "cation": 6605,
      "fashion": 6606,
      "gri": 6607,
      "ko": 6608,
      "psy": 6609,
      "tle": 6610,
      "tall": 6611,
      "wr": 6612,
      "zone": 6613,
      "inte": 6614,
      "reput": 6615,
      "store": 6616,
      "arc": 6617,
      "constant": 6618,
      "ried": 6619,
      "etic": 6620,
      "Instead": 6621,
      "worship": 6622,
      "attached": 6623,
      "airport": 6624,
      "Leon": 6625,
      "appeal": 6626,
      "Joe": 6627,
      "didn": 6628,
      "1974": 6629,
      "commanded": 6630,
      "storyline": 6631,
      "programs": 6632,
      "details": 6633,
      "Commander": 6634,
      "cougar": 6635,
      "routes": 6636,
      "Studios": 6637,
      "enjoyed": 6638,
      "Committee": 6639,
      "Nichol": 6640,
      "79": 6641,
      "Haven": 6642,
      "nell": 6643,
      "wan": 6644,
      "inspir": 6645,
      "enic": 6646,
      "ingly": 6647,
      "isers": 6648,
      "items": 6649,
      "leaves": 6650,
      "ented": 6651,
      "why": 6652,
      "usal": 6653,
      "oting": 6654,
      "1919": 6655,
      "mann": 6656,
      "landed": 6657,
      "temnospondyls": 6658,
      "miner": 6659,
      "drama": 6660,
      "longest": 6661,
      "1978": 6662,
      "evening": 6663,
      "strip": 6664,
      "1952": 6665,
      "explor": 6666,
      "Liber": 6667,
      "naissance": 6668,
      "surviving": 6669,
      "consisting": 6670,
      "satis": 6671,
      "Braz": 6672,
      "committee": 6673,
      "Type": 6674,
      "nucleus": 6675,
      "repeated": 6676,
      "athletes": 6677,
      "Mendes": 6678,
      "Douglas": 6679,
      "Kershaw": 6680,
      "250": 6681,
      "Jun": 6682,
      "Mun": 6683,
      "Snow": 6684,
      "categ": 6685,
      "caught": 6686,
      "iqu": 6687,
      "rural": 6688,
      "tend": 6689,
      "vac": 6690,
      "wart": 6691,
      "thetic": 6692,
      "orn": 6693,
      "assem": 6694,
      "islands": 6695,
      "ette": 6696,
      "dies": 6697,
      "antimony": 6698,
      "ivity": 6699,
      "Stadium": 6700,
      "eving": 6701,
      "aug": 6702,
      "preced": 6703,
      "bra": 6704,
      "weet": 6705,
      "interior": 6706,
      "interchange": 6707,
      "anny": 6708,
      "locations": 6709,
      "myth": 6710,
      "helic": 6711,
      "Bru": 6712,
      "1976": 6713,
      "Marines": 6714,
      "decade": 6715,
      "motion": 6716,
      "Golden": 6717,
      "deployed": 6718,
      "Ay": 6719,
      "Aer": 6720,
      "fix": 6721,
      "iation": 6722,
      "ued": 6723,
      "uous": 6724,
      "āda": 6725,
      "sector": 6726,
      "convict": 6727,
      "elli": 6728,
      "aked": 6729,
      "renamed": 6730,
      "16th": 6731,
      "populations": 6732,
      "grapher": 6733,
      "getting": 6734,
      "Space": 6735,
      "sentence": 6736,
      "clubs": 6737,
      "glass": 6738,
      "Muslim": 6739,
      "settlers": 6740,
      "cruiser": 6741,
      "establishment": 6742,
      "opportunity": 6743,
      "dissipated": 6744,
      "Thunderbirds": 6745,
      "permanent": 6746,
      "Shortly": 6747,
      "Turkish": 6748,
      "Chel": 6749,
      "Nick": 6750,
      "Sa": 6751,
      "cake": 6752,
      "fold": 6753,
      "stal": 6754,
      "entially": 6755,
      "ads": 6756,
      "lyn": 6757,
      "1917": 6758,
      "opposition": 6759,
      "moves": 6760,
      "prised": 6761,
      "evil": 6762,
      "intend": 6763,
      "pty": 6764,
      "storms": 6765,
      "1979": 6766,
      "Marsh": 6767,
      "imeter": 6768,
      "Boise": 6769,
      "joint": 6770,
      "1936": 6771,
      "invited": 6772,
      "doub": 6773,
      "rupt": 6774,
      "digital": 6775,
      "pilot": 6776,
      "regarding": 6777,
      "symbol": 6778,
      "amphib": 6779,
      "Bern": 6780,
      "Master": 6781,
      "Squ": 6782,
      "Vis": 6783,
      "Ye": 6784,
      "knew": 6785,
      "ography": 6786,
      "wish": 6787,
      "wise": 6788,
      "atures": 6789,
      "andy": 6790,
      "isy": 6791,
      "aced": 6792,
      "rie": 6793,
      "pled": 6794,
      "derived": 6795,
      "ifying": 6796,
      "correct": 6797,
      "oking": 6798,
      "rows": 6799,
      "ublin": 6800,
      "supposed": 6801,
      "arib": 6802,
      "Rox": 6803,
      "solid": 6804,
      "Life": 6805,
      "churches": 6806,
      "providing": 6807,
      "technology": 6808,
      "association": 6809,
      "Donald": 6810,
      "Emperor": 6811,
      "Radio": 6812,
      "credited": 6813,
      "applied": 6814,
      "administration": 6815,
      "truth": 6816,
      "convection": 6817,
      "Crazy": 6818,
      "Additionally": 6819,
      "Premier": 6820,
      "protagon": 6821,
      "Bly": 6822,
      "Es": 6823,
      "Mod": 6824,
      "Rick": 6825,
      "SS": 6826,
      "Sound": 6827,
      "gi": 6828,
      "mere": 6829,
      "rates": 6830,
      "youth": 6831,
      "inity": 6832,
      "replace": 6833,
      "stances": 6834,
      "entering": 6835,
      "conference": 6836,
      "apt": 6837,
      "shared": 6838,
      "firing": 6839,
      "compon": 6840,
      "bling": 6841,
      "Anton": 6842,
      "finishing": 6843,
      "noon": 6844,
      "speaking": 6845,
      "ogy": 6846,
      "fles": 6847,
      "producing": 6848,
      "surrender": 6849,
      "Beck": 6850,
      "1982": 6851,
      "1948": 6852,
      "succeeded": 6853,
      "breaking": 6854,
      "classic": 6855,
      "Within": 6856,
      "Science": 6857,
      "greatly": 6858,
      "coastal": 6859,
      "About": 6860,
      "session": 6861,
      "dynasty": 6862,
      "Hollywood": 6863,
      "economy": 6864,
      "reserve": 6865,
      "depicted": 6866,
      "chapel": 6867,
      "Director": 6868,
      "Bono": 6869,
      "replacement": 6870,
      "article": 6871,
      "authors": 6872,
      "knots": 6873,
      "87": 6874,
      "Age": 6875,
      "CO": 6876,
      "Cru": 6877,
      "Dublin": 6878,
      "Ele": 6879,
      "Jay": 6880,
      "Jones": 6881,
      "Raf": 6882,
      "Santa": 6883,
      "Top": 6884,
      "Vol": 6885,
      "WA": 6886,
      "oke": 6887,
      "tied": 6888,
      "intr": 6889,
      "eda": 6890,
      "edom": 6891,
      "hem": 6892,
      "lease": 6893,
      "ilton": 6894,
      "amy": 6895,
      "amin": 6896,
      "uration": 6897,
      "apers": 6898,
      "isted": 6899,
      "divisions": 6900,
      "grave": 6901,
      "Chief": 6902,
      "weigh": 6903,
      "shel": 6904,
      "ropium": 6905,
      "Attor": 6906,
      "appearing": 6907,
      "remainder": 6908,
      "successor": 6909,
      "appropri": 6910,
      "towns": 6911,
      "looked": 6912,
      "certified": 6913,
      "Doctor": 6914,
      "funding": 6915,
      "Military": 6916,
      "acquired": 6917,
      "considerable": 6918,
      "powers": 6919,
      "Colorado": 6920,
      "Brazil": 6921,
      "82": 6922,
      "Ak": 6923,
      "EC": 6924,
      "Free": 6925,
      "Ira": 6926,
      "Jain": 6927,
      "Kang": 6928,
      "Oreg": 6929,
      "Sports": 6930,
      "ias": 6931,
      "rever": 6932,
      "ati": 6933,
      "tos": 6934,
      "rog": 6935,
      "acon": 6936,
      "ading": 6937,
      "forcing": 6938,
      "agen": 6939,
      "plum": 6940,
      "oked": 6941,
      "ansion": 6942,
      "spons": 6943,
      "Albert": 6944,
      "regiment": 6945,
      "eleven": 6946,
      "1963": 6947,
      "Maria": 6948,
      "receive": 6949,
      "willing": 6950,
      "facing": 6951,
      "Charlie": 6952,
      "historians": 6953,
      "Similar": 6954,
      "baseball": 6955,
      "Butler": 6956,
      "electric": 6957,
      "Sunday": 6958,
      "assistance": 6959,
      "concerns": 6960,
      "micro": 6961,
      "ánh": 6962,
      "Anthony": 6963,
      "IGN": 6964,
      "helicop": 6965,
      "Blythe": 6966,
      "Attorney": 6967,
      "Oregon": 6968,
      "Bell": 6969,
      "Fel": 6970,
      "Fire": 6971,
      "Ko": 6972,
      "Pers": 6973,
      "Test": 6974,
      "bie": 6975,
      "ds": 6976,
      "lings": 6977,
      "pin": 6978,
      "wel": 6979,
      "acid": 6980,
      "channel": 6981,
      "terior": 6982,
      "ceived": 6983,
      "teor": 6984,
      "ully": 6985,
      "appre": 6986,
      "comic": 6987,
      "dub": 6988,
      "correspond": 6989,
      "attle": 6990,
      "brick": 6991,
      "phone": 6992,
      "speech": 6993,
      "unting": 6994,
      "Gram": 6995,
      "sequently": 6996,
      "technical": 6997,
      "prede": 6998,
      "predict": 6999,
      "races": 7000,
      "Howard": 7001,
      "Croatian": 7002,
      "Brian": 7003,
      "Evita": 7004,
      "ranean": 7005,
      "happy": 7006,
      "achieve": 7007,
      "Ash": 7008,
      "Kn": 7009,
      "Ner": 7010,
      "Pa": 7011,
      "Run": 7012,
      "sight": 7013,
      "inhabit": 7014,
      "ori": 7015,
      "stock": 7016,
      "arranged": 7017,
      "bels": 7018,
      "aga": 7019,
      "sud": 7020,
      "ateur": 7021,
      "ardo": 7022,
      "ameter": 7023,
      "formal": 7024,
      "airs": 7025,
      "Alan": 7026,
      "10th": 7027,
      "tries": 7028,
      "attacking": 7029,
      "controll": 7030,
      "Liu": 7031,
      "MacLe": 7032,
      "flights": 7033,
      "Special": 7034,
      "scholars": 7035,
      "experiment": 7036,
      "Transport": 7037,
      "Khánh": 7038,
      "Jamal": 7039,
      "chorus": 7040,
      "BS": 7041,
      "Jurch": 7042,
      "Por": 7043,
      "franch": 7044,
      "hen": 7045,
      "hun": 7046,
      "yson": 7047,
      "ini": 7048,
      "institut": 7049,
      "acre": 7050,
      "imet": 7051,
      "agree": 7052,
      "resour": 7053,
      "plane": 7054,
      "iston": 7055,
      "exact": 7056,
      "sie": 7057,
      "Heavy": 7058,
      "meets": 7059,
      "pregn": 7060,
      "Ant": 7061,
      "foundation": 7062,
      "downtown": 7063,
      "download": 7064,
      "transit": 7065,
      "leads": 7066,
      "rug": 7067,
      "statement": 7068,
      "label": 7069,
      "11th": 7070,
      "characteristics": 7071,
      "Stephen": 7072,
      "1953": 7073,
      "denied": 7074,
      "seeing": 7075,
      "Point": 7076,
      "typical": 7077,
      "motor": 7078,
      "Somal": 7079,
      "teeth": 7080,
      "watched": 7081,
      "literary": 7082,
      "journey": 7083,
      "Tennyson": 7084,
      "Alexander": 7085,
      "controversy": 7086,
      "opinion": 7087,
      "Freder": 7088,
      "industrial": 7089,
      "occasionally": 7090,
      "responsibility": 7091,
      "Cas": 7092,
      "Carib": 7093,
      "Federal": 7094,
      "Homer": 7095,
      "Iguan": 7096,
      "Jos": 7097,
      "Wy": 7098,
      "Wat": 7099,
      "hope": 7100,
      "task": 7101,
      "vary": 7102,
      "ano": 7103,
      "anda": 7104,
      "asks": 7105,
      "itled": 7106,
      "beth": 7107,
      "immig": 7108,
      "agle": 7109,
      "agents": 7110,
      "idae": 7111,
      "1913": 7112,
      "ophy": 7113,
      "abour": 7114,
      "exh": 7115,
      "astron": 7116,
      "quite": 7117,
      "fee": 7118,
      "assador": 7119,
      "colour": 7120,
      "crash": 7121,
      "typhoon": 7122,
      "drug": 7123,
      "cript": 7124,
      "showing": 7125,
      "valley": 7126,
      "politics": 7127,
      "terminus": 7128,
      "chapter": 7129,
      "examples": 7130,
      "split": 7131,
      "rhyth": 7132,
      "sufficient": 7133,
      "Admiral": 7134,
      "capacity": 7135,
      "integr": 7136,
      "Iraq": 7137,
      "88": 7138,
      "AP": 7139,
      "Bos": 7140,
      "Spring": 7141,
      "Ton": 7142,
      "cab": 7143,
      "none": 7144,
      "pel": 7145,
      "page": 7146,
      "safety": 7147,
      "tale": 7148,
      "wa": 7149,
      "sects": 7150,
      "bean": 7151,
      "irs": 7152,
      "1900": 7153,
      "opher": 7154,
      "eman": 7155,
      "emor": 7156,
      "exerc": 7157,
      "asser": 7158,
      "aws": 7159,
      "attributed": 7160,
      "pton": 7161,
      "sche": 7162,
      "ampions": 7163,
      "commemor": 7164,
      "knock": 7165,
      "ologists": 7166,
      "winner": 7167,
      "sequences": 7168,
      "generation": 7169,
      "vote": 7170,
      "references": 7171,
      "everything": 7172,
      "Simon": 7173,
      "Simone": 7174,
      "regularly": 7175,
      "habitat": 7176,
      "circum": 7177,
      "department": 7178,
      "Brook": 7179,
      "portrayed": 7180,
      "mobile": 7181,
      "revolution": 7182,
      "Columbia": 7183,
      "reputation": 7184,
      "Amb": 7185,
      "Daily": 7186,
      "Loren": 7187,
      "Person": 7188,
      "Sap": 7189,
      "aud": 7190,
      "hits": 7191,
      "zi": 7192,
      "anes": 7193,
      "recovered": 7194,
      "ala": 7195,
      "concer": 7196,
      "plants": 7197,
      "mos": 7198,
      "liked": 7199,
      "expect": 7200,
      "antly": 7201,
      "earch": 7202,
      "noting": 7203,
      "Chains": 7204,
      "blocks": 7205,
      "offers": 7206,
      "flat": 7207,
      "crime": 7208,
      "gameplay": 7209,
      "someone": 7210,
      "charter": 7211,
      "surg": 7212,
      "suppor": 7213,
      "Marl": 7214,
      "approved": 7215,
      "priest": 7216,
      "destroyers": 7217,
      "cruisers": 7218,
      "detail": 7219,
      "Depression": 7220,
      "measures": 7221,
      "Hugh": 7222,
      "specifically": 7223,
      "embassy": 7224,
      "Gibr": 7225,
      "discovery": 7226,
      "thousands": 7227,
      "instrument": 7228,
      "Modern": 7229,
      "MacLeod": 7230,
      "57": 7231,
      "63": 7232,
      "Here": 7233,
      "Lenn": 7234,
      "Mot": 7235,
      "Tal": 7236,
      "Ulys": 7237,
      "cos": 7238,
      "gall": 7239,
      "nick": 7240,
      "spr": 7241,
      "squad": 7242,
      "yo": 7243,
      "zen": 7244,
      "ān": 7245,
      "icipal": 7246,
      "adal": 7247,
      "deed": 7248,
      "veget": 7249,
      "erected": 7250,
      "cloud": 7251,
      "worst": 7252,
      "forests": 7253,
      "aza": 7254,
      "covers": 7255,
      "1949": 7256,
      "continuing": 7257,
      "defended": 7258,
      "1951": 7259,
      "1956": 7260,
      "window": 7261,
      "Perry": 7262,
      "studied": 7263,
      "younger": 7264,
      "competitions": 7265,
      "Nether": 7266,
      "occurs": 7267,
      "painted": 7268,
      "patron": 7269,
      "recognition": 7270,
      "separated": 7271,
      "Holy": 7272,
      "discussed": 7273,
      "biography": 7274,
      "indicate": 7275,
      "carrying": 7276,
      "safe": 7277,
      "vessels": 7278,
      "Secretary": 7279,
      "Square": 7280,
      "Caribbean": 7281,
      "Gibraltar": 7282,
      "Ulysses": 7283,
      "97": 7284,
      "Cel": 7285,
      "DA": 7286,
      "Dur": 7287,
      "Det": 7288,
      "Edu": 7289,
      "Ell": 7290,
      "Kil": 7291,
      "Key": 7292,
      "Nar": 7293,
      "Rom": 7294,
      "Sav": 7295,
      "cry": 7296,
      "kins": 7297,
      "sle": 7298,
      "rell": 7299,
      "aton": 7300,
      "agues": 7301,
      "resent": 7302,
      "cles": 7303,
      "sized": 7304,
      "fear": 7305,
      "iven": 7306,
      "Story": 7307,
      "intention": 7308,
      "dismissed": 7309,
      "describing": 7310,
      "decis": 7311,
      "xture": 7312,
      "stands": 7313,
      "penalty": 7314,
      "changing": 7315,
      "Moz": 7316,
      "rules": 7317,
      "Duke": 7318,
      "interested": 7319,
      "difficulty": 7320,
      "approached": 7321,
      "Activ": 7322,
      "alternative": 7323,
      "committed": 7324,
      "Jersey": 7325,
      "fitted": 7326,
      "Archae": 7327,
      "emerged": 7328,
      "Senate": 7329,
      "earthquake": 7330,
      "Critical": 7331,
      "Historic": 7332,
      "opponents": 7333,
      "Tetr": 7334,
      "predecess": 7335,
      "68": 7336,
      "Aston": 7337,
      "DNA": 7338,
      "Hit": 7339,
      "Hindu": 7340,
      "Hospital": 7341,
      "Kat": 7342,
      "Ode": 7343,
      "Pagan": 7344,
      "Rio": 7345,
      "Wars": 7346,
      "eighth": 7347,
      "jum": 7348,
      "pse": 7349,
      "theatre": 7350,
      "sters": 7351,
      "hear": 7352,
      "entry": 7353,
      "Init": 7354,
      "exception": 7355,
      "affect": 7356,
      "assess": 7357,
      "creator": 7358,
      "poses": 7359,
      "Anonymous": 7360,
      "Around": 7361,
      "Recording": 7362,
      "Show": 7363,
      "Beaut": 7364,
      "1983": 7365,
      "operating": 7366,
      "Forces": 7367,
      "designation": 7368,
      "organizations": 7369,
      "camps": 7370,
      "attempting": 7371,
      "basin": 7372,
      "basic": 7373,
      "hosted": 7374,
      "crosses": 7375,
      "accused": 7376,
      "brothers": 7377,
      "Olympics": 7378,
      "methods": 7379,
      "demol": 7380,
      "picked": 7381,
      "Georgian": 7382,
      "recommended": 7383,
      "duties": 7384,
      "ceremony": 7385,
      "academic": 7386,
      "Fantasy": 7387,
      "Hornung": 7388,
      "sudden": 7389,
      "AML": 7390,
      "Gore": 7391,
      "Kel": 7392,
      "LI": 7393,
      "Mas": 7394,
      "WC": 7395,
      "baby": 7396,
      "gé": 7397,
      "gers": 7398,
      "gone": 7399,
      "lu": 7400,
      "mart": 7401,
      "nav": 7402,
      "tong": 7403,
      "inland": 7404,
      "stab": 7405,
      "owed": 7406,
      "convin": 7407,
      "shots": 7408,
      "manner": 7409,
      "afts": 7410,
      "desire": 7411,
      "prey": 7412,
      "ountain": 7413,
      "retained": 7414,
      "regime": 7415,
      "canal": 7416,
      "ifications": 7417,
      "1961": 7418,
      "tribes": 7419,
      "13th": 7420,
      "grounds": 7421,
      "starred": 7422,
      "believes": 7423,
      "magn": 7424,
      "reality": 7425,
      "Order": 7426,
      "strongly": 7427,
      "frig": 7428,
      "charts": 7429,
      "calcul": 7430,
      "secured": 7431,
      "favorite": 7432,
      "challenge": 7433,
      "leadership": 7434,
      "dollars": 7435,
      "extremely": 7436,
      "Television": 7437,
      "Francisco": 7438,
      "intensified": 7439,
      "Simpsons": 7440,
      "battleships": 7441,
      "isolated": 7442,
      "atmosphere": 7443,
      "Cardinal": 7444,
      "Chelsea": 7445,
      "67": 7446,
      "Dota": 7447,
      "Fame": 7448,
      "Gab": 7449,
      "Kurt": 7450,
      "Mul": 7451,
      "Net": 7452,
      "U2": 7453,
      "bay": 7454,
      "ees": 7455,
      "fine": 7456,
      "mud": 7457,
      "math": 7458,
      "theat": 7459,
      "ora": 7460,
      "itage": 7461,
      "lets": 7462,
      "select": 7463,
      "igation": 7464,
      "unusual": 7465,
      "oty": 7466,
      "util": 7467,
      "superior": 7468,
      "diameter": 7469,
      "loan": 7470,
      "brand": 7471,
      "afternoon": 7472,
      "column": 7473,
      "pointed": 7474,
      "warm": 7475,
      "cycle": 7476,
      "Works": 7477,
      "carved": 7478,
      "assistant": 7479,
      "Cambridge": 7480,
      "accounts": 7481,
      "embark": 7482,
      "equipped": 7483,
      "Patrick": 7484,
      "bringing": 7485,
      "rarely": 7486,
      "Memorial": 7487,
      "ironclads": 7488,
      "province": 7489,
      "thirty": 7490,
      "neighbor": 7491,
      "principal": 7492,
      "parallel": 7493,
      "wedding": 7494,
      "Tetrarch": 7495,
      "Jenn": 7496,
      "Less": 7497,
      "NS": 7498,
      "Pur": 7499,
      "Pul": 7500,
      "VN": 7501,
      "crown": 7502,
      "jac": 7503,
      "tie": 7504,
      "wine": 7505,
      "stic": 7506,
      "ione": 7507,
      "chi": 7508,
      "1910": 7509,
      "plom": 7510,
      "trail": 7511,
      "achu": 7512,
      "evo": 7513,
      "corn": 7514,
      "ureau": 7515,
      "rank": 7516,
      "scape": 7517,
      "anniversary": 7518,
      "fled": 7519,
      "regional": 7520,
      "norm": 7521,
      "numbered": 7522,
      "operate": 7523,
      "erald": 7524,
      "legs": 7525,
      "passage": 7526,
      "Plot": 7527,
      "Track": 7528,
      "reviewer": 7529,
      "glades": 7530,
      "Maeda": 7531,
      "Romani": 7532,
      "moral": 7533,
      "Mountains": 7534,
      "Hamilton": 7535,
      "Madonna": 7536,
      "teaching": 7537,
      "controversi": 7538,
      "incorporated": 7539,
      "obtained": 7540,
      "Engineer": 7541,
      "Haiti": 7542,
      "nomination": 7543,
      "Writing": 7544,
      "victims": 7545,
      "expedition": 7546,
      "Constantine": 7547,
      "Hibari": 7548,
      "3D": 7549,
      "Cop": 7550,
      "Fron": 7551,
      "Gang": 7552,
      "NBC": 7553,
      "Qedar": 7554,
      "Ré": 7555,
      "Rem": 7556,
      "Rangers": 7557,
      "Tel": 7558,
      "bom": 7559,
      "bond": 7560,
      "eff": 7561,
      "gor": 7562,
      "jump": 7563,
      "pushed": 7564,
      "puzz": 7565,
      "thy": 7566,
      "infe": 7567,
      "inci": 7568,
      "sta": 7569,
      "illi": 7570,
      "abled": 7571,
      "clif": 7572,
      "evin": 7573,
      "partly": 7574,
      "spacing": 7575,
      "indicated": 7576,
      "retire": 7577,
      "setts": 7578,
      "Beach": 7579,
      "transition": 7580,
      "attered": 7581,
      "generated": 7582,
      "Prime": 7583,
      "classes": 7584,
      "Organ": 7585,
      "medieval": 7586,
      "ruli": 7587,
      "Township": 7588,
      "Starr": 7589,
      "Queens": 7590,
      "immediate": 7591,
      "alogue": 7592,
      "Brien": 7593,
      "Peninsula": 7594,
      "attracted": 7595,
      "Industry": 7596,
      "Venus": 7597,
      "platform": 7598,
      "Massachu": 7599,
      "remnants": 7600,
      "passengers": 7601,
      "Friends": 7602,
      "Massachusetts": 7603,
      "112": 7604,
      "Main": 7605,
      "Mast": 7606,
      "Vo": 7607,
      "bones": 7608,
      "hat": 7609,
      "pa": 7610,
      "rus": 7611,
      "tz": 7612,
      "inning": 7613,
      "income": 7614,
      "arg": 7615,
      "admitted": 7616,
      "aph": 7617,
      "pete": 7618,
      "proceed": 7619,
      "Chan": 7620,
      "Chronic": 7621,
      "lob": 7622,
      "parties": 7623,
      "partial": 7624,
      "ultane": 7625,
      "mont": 7626,
      "Unlike": 7627,
      "indig": 7628,
      "whereas": 7629,
      "ensus": 7630,
      "memor": 7631,
      "memorial": 7632,
      "completion": 7633,
      "1977": 7634,
      "defences": 7635,
      "armored": 7636,
      "quez": 7637,
      "classical": 7638,
      "Cape": 7639,
      "connection": 7640,
      "hotel": 7641,
      "Republican": 7642,
      "Singles": 7643,
      "Oslo": 7644,
      "reconnaissance": 7645,
      "Weekly": 7646,
      "Independent": 7647,
      "Roger": 7648,
      "twelve": 7649,
      "survivors": 7650,
      "Iguanodon": 7651,
      "cliffe": 7652,
      "Pi": 7653,
      "Patt": 7654,
      "cold": 7655,
      "dock": 7656,
      "hot": 7657,
      "mad": 7658,
      "soft": 7659,
      "wich": 7660,
      "stall": 7661,
      "amar": 7662,
      "igades": 7663,
      "withdrew": 7664,
      "idd": 7665,
      "otic": 7666,
      "apart": 7667,
      "plate": 7668,
      "emotional": 7669,
      "ockey": 7670,
      "acknow": 7671,
      "ift": 7672,
      "contribut": 7673,
      "offense": 7674,
      "Review": 7675,
      "cription": 7676,
      "covery": 7677,
      "140": 7678,
      "Carl": 7679,
      "distribution": 7680,
      "returns": 7681,
      "promote": 7682,
      "bands": 7683,
      "falling": 7684,
      "1955": 7685,
      "1937": 7686,
      "barr": 7687,
      "communities": 7688,
      "posted": 7689,
      "iterranean": 7690,
      "equival": 7691,
      "suffering": 7692,
      "settled": 7693,
      "driving": 7694,
      "expansion": 7695,
      "ucky": 7696,
      "Mediterranean": 7697,
      "civilian": 7698,
      "learn": 7699,
      "Hotel": 7700,
      "seemed": 7701,
      "feeling": 7702,
      "Samuel": 7703,
      "Bradford": 7704,
      "rescue": 7705,
      "arrested": 7706,
      "Rolling": 7707,
      "arrangement": 7708,
      "escort": 7709,
      "Mongol": 7710,
      "Frederick": 7711,
      "99": 7712,
      "CR": 7713,
      "Jud": 7714,
      "Matt": 7715,
      "Pict": 7716,
      "Power": 7717,
      "cinem": 7718,
      "dal": 7719,
      "ien": 7720,
      "ios": 7721,
      "ninth": 7722,
      "tone": 7723,
      "implement": 7724,
      "istry": 7725,
      "overw": 7726,
      "spur": 7727,
      "cessive": 7728,
      "interpret": 7729,
      "angerous": 7730,
      "shear": 7731,
      "soil": 7732,
      "Death": 7733,
      "followers": 7734,
      "Sha": 7735,
      "signing": 7736,
      "Morrison": 7737,
      "closer": 7738,
      "Montana": 7739,
      "threatened": 7740,
      "Maryland": 7741,
      "Research": 7742,
      "Jerusal": 7743,
      "atoon": 7744,
      "Territ": 7745,
      "Gully": 7746,
      "drums": 7747,
      "Human": 7748,
      "Everglades": 7749,
      "Adams": 7750,
      "specimens": 7751,
      "installed": 7752,
      "Eliza": 7753,
      "ardian": 7754,
      "mushroom": 7755,
      "Roxas": 7756,
      "rugby": 7757,
      "Lorenzo": 7758,
      "Jerusalem": 7759,
      "BN": 7760,
      "Flight": 7761,
      "Jac": 7762,
      "Sher": 7763,
      "Yan": 7764,
      "fi": 7765,
      "mature": 7766,
      "ocean": 7767,
      "ét": 7768,
      "anz": 7769,
      "onica": 7770,
      "orb": 7771,
      "depos": 7772,
      "1927": 7773,
      "proto": 7774,
      "assumed": 7775,
      "intense": 7776,
      "partners": 7777,
      "monuments": 7778,
      "noisy": 7779,
      "angle": 7780,
      "minister": 7781,
      "somewhat": 7782,
      "Maya": 7783,
      "carbon": 7784,
      "courts": 7785,
      "Stefan": 7786,
      "1954": 7787,
      "1938": 7788,
      "drawing": 7789,
      "Eddie": 7790,
      "rapped": 7791,
      "existed": 7792,
      "Somali": 7793,
      "conduct": 7794,
      "Player": 7795,
      "teacher": 7796,
      "treaty": 7797,
      "circulation": 7798,
      "Georgia": 7799,
      "Truj": 7800,
      "easily": 7801,
      "eggs": 7802,
      "wrong": 7803,
      "Nerva": 7804,
      "controversial": 7805,
      "Mit": 7806,
      "Nintend": 7807,
      "OK": 7808,
      "Pope": 7809,
      "Sb": 7810,
      "cu": 7811,
      "dim": 7812,
      "foss": 7813,
      "taught": 7814,
      "esis": 7815,
      "enters": 7816,
      "destruction": 7817,
      "wid": 7818,
      "romantic": 7819,
      "astru": 7820,
      "stration": 7821,
      "iance": 7822,
      "compound": 7823,
      "disci": 7824,
      "monarch": 7825,
      "survey": 7826,
      "Josh": 7827,
      "1962": 7828,
      "armour": 7829,
      "organised": 7830,
      "advoc": 7831,
      "Prof": 7832,
      "limit": 7833,
      "involving": 7834,
      "graphics": 7835,
      "Angle": 7836,
      "novels": 7837,
      "driven": 7838,
      "belt": 7839,
      "stayed": 7840,
      "error": 7841,
      "surrounded": 7842,
      "Jean": 7843,
      "purchase": 7844,
      "debate": 7845,
      "camera": 7846,
      "shells": 7847,
      "documentary": 7848,
      "Castle": 7849,
      "franchise": 7850,
      "institutions": 7851,
      "Mozamb": 7852,
      "Trujillo": 7853,
      "Nintendo": 7854,
      "astruct": 7855,
      "Bang": 7856,
      "DC": 7857,
      "Hong": 7858,
      "OC": 7859,
      "Owen": 7860,
      "Rain": 7861,
      "Sonic": 7862,
      "Ut": 7863,
      "jazz": 7864,
      "sam": 7865,
      "snow": 7866,
      "voted": 7867,
      "wheel": 7868,
      "instru": 7869,
      "stadium": 7870,
      "itated": 7871,
      "sees": 7872,
      "deem": 7873,
      "unsuccessful": 7874,
      "ables": 7875,
      "diplom": 7876,
      "estate": 7877,
      "itsune": 7878,
      "Third": 7879,
      "Aniston": 7880,
      "elev": 7881,
      "medium": 7882,
      "Carter": 7883,
      "Plunk": 7884,
      "sequel": 7885,
      "claiming": 7886,
      "1958": 7887,
      "Harry": 7888,
      "equal": 7889,
      "munition": 7890,
      "relationships": 7891,
      "railway": 7892,
      "territories": 7893,
      "concerned": 7894,
      "badly": 7895,
      "aggressive": 7896,
      "Rhodesian": 7897,
      "candidate": 7898,
      "Argentina": 7899,
      "pyram": 7900,
      "fungus": 7901,
      "submarine": 7902,
      "restaurant": 7903,
      "citiz": 7904,
      "expensive": 7905,
      "exhaust": 7906,
      "concerts": 7907,
      "AT": 7908,
      "Cad": 7909,
      "Danny": 7910,
      "Hay": 7911,
      "Rhy": 7912,
      "Ryan": 7913,
      "Tig": 7914,
      "Tower": 7915,
      "Wis": 7916,
      "cular": 7917,
      "cars": 7918,
      "pp": 7919,
      "pine": 7920,
      "tick": 7921,
      "wants": 7922,
      "recalled": 7923,
      "enburg": 7924,
      "alph": 7925,
      "accom": 7926,
      "entitled": 7927,
      "ammunition": 7928,
      "beam": 7929,
      "convent": 7930,
      "iday": 7931,
      "owner": 7932,
      "inton": 7933,
      "partially": 7934,
      "offman": 7935,
      "answ": 7936,
      "product": 7937,
      "consum": 7938,
      "consult": 7939,
      "Norman": 7940,
      "15th": 7941,
      "Beat": 7942,
      "distributed": 7943,
      "skull": 7944,
      "graphs": 7945,
      "Design": 7946,
      "traveled": 7947,
      "reduce": 7948,
      "injured": 7949,
      "engineering": 7950,
      "Korea": 7951,
      "Prior": 7952,
      "bella": 7953,
      "printed": 7954,
      "extension": 7955,
      "walk": 7956,
      "hoped": 7957,
      "preserved": 7958,
      "linked": 7959,
      "message": 7960,
      "Isabella": 7961,
      "ISBN": 7962,
      "Lisa": 7963,
      "Lennon": 7964,
      "Activision": 7965,
      "Branch": 7966,
      "CC": 7967,
      "Elect": 7968,
      "Fair": 7969,
      "Hud": 7970,
      "Ky": 7971,
      "Kong": 7972,
      "Lau": 7973,
      "Naval": 7974,
      "Pass": 7975,
      "Sel": 7976,
      "fing": 7977,
      "stance": 7978,
      "heat": 7979,
      "amond": 7980,
      "bearing": 7981,
      "context": 7982,
      "apa": 7983,
      "aints": 7984,
      "cler": 7985,
      "avior": 7986,
      "upgraded": 7987,
      "offs": 7988,
      "genre": 7989,
      "Where": 7990,
      "products": 7991,
      "Construction": 7992,
      "designs": 7993,
      "Germans": 7994,
      "1959": 7995,
      "Prov": 7996,
      "effectively": 7997,
      "footage": 7998,
      "streets": 7999,
      "programme": 8000,
      "treated": 8001,
      "Calvert": 8002,
      "investigation": 8003,
      "ratings": 8004,
      "Stock": 8005,
      "possession": 8006,
      "divine": 8007,
      "1920s": 8008,
      "resistance": 8009,
      "agricultural": 8010,
      "resources": 8011,
      "Front": 8012,
      "Av": 8013,
      "Glo": 8014,
      "Kansas": 8015,
      "MO": 8016,
      "Rug": 8017,
      "Win": 8018,
      "Yank": 8019,
      "gard": 8020,
      "lake": 8021,
      "rh": 8022,
      "rin": 8023,
      "tight": 8024,
      "wet": 8025,
      "zz": 8026,
      "atom": 8027,
      "orche": 8028,
      "stap": 8029,
      "chant": 8030,
      "chronic": 8031,
      "degre": 8032,
      "verte": 8033,
      "istan": 8034,
      "trained": 8035,
      "ills": 8036,
      "essential": 8037,
      "overseas": 8038,
      "ears": 8039,
      "grav": 8040,
      "uding": 8041,
      "formally": 8042,
      "Alf": 8043,
      "understand": 8044,
      "charged": 8045,
      "releg": 8046,
      "engines": 8047,
      "identity": 8048,
      "check": 8049,
      "chemical": 8050,
      "solution": 8051,
      "protests": 8052,
      "reading": 8053,
      "joining": 8054,
      "refers": 8055,
      "reviewers": 8056,
      "victories": 8057,
      "laws": 8058,
      "ajevo": 8059,
      "meetings": 8060,
      "sessions": 8061,
      "Strand": 8062,
      "dynam": 8063,
      "Sarajevo": 8064,
      "learning": 8065,
      "colonies": 8066,
      "funds": 8067,
      "wearing": 8068,
      "apparently": 8069,
      "elsewhere": 8070,
      "opposite": 8071,
      "modified": 8072,
      "inspiration": 8073,
      "Somalia": 8074,
      "Netherlands": 8075,
      "Beauty": 8076,
      "normally": 8077,
      "degrees": 8078,
      "CP": 8079,
      "Cult": 8080,
      "Die": 8081,
      "Fern": 8082,
      "Gun": 8083,
      "Jif": 8084,
      "Now": 8085,
      "Sul": 8086,
      "Ur": 8087,
      "VI": 8088,
      "Vice": 8089,
      "invent": 8090,
      "eratops": 8091,
      "orous": 8092,
      "arp": 8093,
      "arte": 8094,
      "leuk": 8095,
      "adjac": 8096,
      "aming": 8097,
      "amateur": 8098,
      "impl": 8099,
      "impossible": 8100,
      "cement": 8101,
      "elabor": 8102,
      "moon": 8103,
      "prohib": 8104,
      "exposed": 8105,
      "lose": 8106,
      "lowest": 8107,
      "ellite": 8108,
      "Who": 8109,
      "enses": 8110,
      "ensis": 8111,
      "azing": 8112,
      "offices": 8113,
      "videos": 8114,
      "Barbar": 8115,
      "streak": 8116,
      "detailed": 8117,
      "reveals": 8118,
      "perspect": 8119,
      "Veronica": 8120,
      "absence": 8121,
      "occasions": 8122,
      "aviour": 8123,
      "restored": 8124,
      "beautiful": 8125,
      "Journal": 8126,
      "Destiny": 8127,
      "Stanley": 8128,
      "equivalent": 8129,
      "Yankovic": 8130,
      "92": 8131,
      "Bad": 8132,
      "Cur": 8133,
      "Jere": 8134,
      "Labor": 8135,
      "Mes": 8136,
      "Nak": 8137,
      "Pine": 8138,
      "Tro": 8139,
      "Treat": 8140,
      "Your": 8141,
      "nut": 8142,
      "sor": 8143,
      "iner": 8144,
      "inson": 8145,
      "renew": 8146,
      "remark": 8147,
      "ensure": 8148,
      "stell": 8149,
      "isms": 8150,
      "icide": 8151,
      "illy": 8152,
      "selection": 8153,
      "agas": 8154,
      "1911": 8155,
      "1929": 8156,
      "umin": 8157,
      "abilities": 8158,
      "exchange": 8159,
      "ignment": 8160,
      "serial": 8161,
      "afterwards": 8162,
      "raise": 8163,
      "amps": 8164,
      "gene": 8165,
      "consol": 8166,
      "westward": 8167,
      "poll": 8168,
      "legend": 8169,
      "tribute": 8170,
      "Islam": 8171,
      "1935": 8172,
      "profit": 8173,
      "representing": 8174,
      "appointment": 8175,
      "burned": 8176,
      "languages": 8177,
      "practices": 8178,
      "transportation": 8179,
      "stationed": 8180,
      "absor": 8181,
      "requested": 8182,
      "Victorian": 8183,
      "throne": 8184,
      "adults": 8185,
      "scientific": 8186,
      "alleged": 8187,
      "encouraged": 8188,
      "Democratic": 8189,
      "Clarkson": 8190,
      "congreg": 8191,
      "protagonist": 8192,
      "Beckham": 8193,
      "inhabitants": 8194,
      "Rugby": 8195,
      "900": 8196,
      "Blo": 8197,
      "Bron": 8198,
      "Cory": 8199,
      "DH": 8200,
      "Every": 8201,
      "Hg": 8202,
      "Kim": 8203,
      "Kaw": 8204,
      "Sand": 8205,
      "Tok": 8206,
      "Wi": 8207,
      "cash": 8208,
      "faster": 8209,
      "ients": 8210,
      "lists": 8211,
      "sid": 8212,
      "vul": 8213,
      "onia": 8214,
      "online": 8215,
      "stere": 8216,
      "ingale": 8217,
      "icate": 8218,
      "accompany": 8219,
      "olitan": 8220,
      "eless": 8221,
      "apy": 8222,
      "1921": 8223,
      "abol": 8224,
      "lik": 8225,
      "diag": 8226,
      "afford": 8227,
      "ritual": 8228,
      "Channel": 8229,
      "phr": 8230,
      "izon": 8231,
      "annah": 8232,
      "oba": 8233,
      "tribut": 8234,
      "talk": 8235,
      "standards": 8236,
      "Wilde": 8237,
      "1932": 8238,
      "movements": 8239,
      "suggesting": 8240,
      "alien": 8241,
      "Corpor": 8242,
      "telling": 8243,
      "youngest": 8244,
      "1909": 8245,
      "mountains": 8246,
      "praise": 8247,
      "difficulties": 8248,
      "deliber": 8249,
      "panel": 8250,
      "Radcliffe": 8251,
      "suitable": 8252,
      "Matthew": 8253,
      "Skye": 8254,
      "assassination": 8255,
      "happened": 8256,
      "false": 8257,
      "Athletic": 8258,
      "fixed": 8259,
      "Jifna": 8260,
      "adjacent": 8261,
      "Fras": 8262,
      "Kevin": 8263,
      "Lower": 8264,
      "uge": 8265,
      "incess": 8266,
      "ensu": 8267,
      "icit": 8268,
      "iling": 8269,
      "ilation": 8270,
      "oli": 8271,
      "oll": 8272,
      "impression": 8273,
      "ott": 8274,
      "eton": 8275,
      "1912": 8276,
      "comed": 8277,
      "absol": 8278,
      "shark": 8279,
      "clip": 8280,
      "neth": 8281,
      "trust": 8282,
      "ishment": 8283,
      "overs": 8284,
      "Chang": 8285,
      "actual": 8286,
      "angular": 8287,
      "annually": 8288,
      "understanding": 8289,
      "USD": 8290,
      "ibility": 8291,
      "Wilson": 8292,
      "listen": 8293,
      "listing": 8294,
      "oxy": 8295,
      "Scientolog": 8296,
      "predomin": 8297,
      "defeating": 8298,
      "crews": 8299,
      "avalry": 8300,
      "Russia": 8301,
      "preparation": 8302,
      "favorable": 8303,
      "visitors": 8304,
      "judge": 8305,
      "Build": 8306,
      "hundreds": 8307,
      "Confeder": 8308,
      "Austrian": 8309,
      "custom": 8310,
      "Indones": 8311,
      "infrastruct": 8312,
      "appropriate": 8313,
      "Grammy": 8314,
      "siege": 8315,
      "91": 8316,
      "Ba": 8317,
      "Bed": 8318,
      "Found": 8319,
      "Prom": 8320,
      "Wim": 8321,
      "Yo": 8322,
      "dess": 8323,
      "gate": 8324,
      "iest": 8325,
      "nings": 8326,
      "pure": 8327,
      "pale": 8328,
      "reck": 8329,
      "rebels": 8330,
      "enh": 8331,
      "leton": 8332,
      "impressed": 8333,
      "igins": 8334,
      "terbury": 8335,
      "terror": 8336,
      "ctic": 8337,
      "usad": 8338,
      "resumed": 8339,
      "etts": 8340,
      "comments": 8341,
      "exit": 8342,
      "twin": 8343,
      "intent": 8344,
      "bright": 8345,
      "interpre": 8346,
      "writings": 8347,
      "Shakes": 8348,
      "memory": 8349,
      "Warren": 8350,
      "lanes": 8351,
      "Guy": 8352,
      "grey": 8353,
      "Canterbury": 8354,
      "dense": 8355,
      "1931": 8356,
      "bases": 8357,
      "purposes": 8358,
      "influential": 8359,
      "interests": 8360,
      "Palace": 8361,
      "recognised": 8362,
      "Mexican": 8363,
      "injuries": 8364,
      "materials": 8365,
      "itzer": 8366,
      "executed": 8367,
      "Lawrence": 8368,
      "bulk": 8369,
      "europium": 8370,
      "Burns": 8371,
      "chairman": 8372,
      "Classic": 8373,
      "Banai": 8374,
      "Profess": 8375,
      "Shakespe": 8376,
      "74": 8377,
      "Bh": 8378,
      "Bat": 8379,
      "Bah": 8380,
      "Mack": 8381,
      "Ni": 8382,
      "Wolf": 8383,
      "bats": 8384,
      "cann": 8385,
      "fest": 8386,
      "hl": 8387,
      "tailed": 8388,
      "zac": 8389,
      "inct": 8390,
      "inHg": 8391,
      "theater": 8392,
      "analy": 8393,
      "encing": 8394,
      "orph": 8395,
      "ande": 8396,
      "ician": 8397,
      "heli": 8398,
      "deleg": 8399,
      "unch": 8400,
      "ceased": 8401,
      "convers": 8402,
      "agi": 8403,
      "option": 8404,
      "earning": 8405,
      "guil": 8406,
      "elling": 8407,
      "spaces": 8408,
      "shipping": 8409,
      "airline": 8410,
      "anyon": 8411,
      "regist": 8412,
      "mixture": 8413,
      "Norway": 8414,
      "muscar": 8415,
      "musicians": 8416,
      "armament": 8417,
      "factory": 8418,
      "styles": 8419,
      "itarian": 8420,
      "clearly": 8421,
      "Poland": 8422,
      "residential": 8423,
      "watching": 8424,
      "objective": 8425,
      "watershed": 8426,
      "huge": 8427,
      "carries": 8428,
      "initiative": 8429,
      "lbw": 8430,
      "specimen": 8431,
      "minimum": 8432,
      "texts": 8433,
      "turrets": 8434,
      "Coleman": 8435,
      "Jesus": 8436,
      "convinced": 8437,
      "overwhel": 8438,
      "Elizabeth": 8439,
      "Shakespeare": 8440,
      "Again": 8441,
      "Bou": 8442,
      "Goffman": 8443,
      "Hun": 8444,
      "Joy": 8445,
      "Stop": 8446,
      "Tam": 8447,
      "aire": 8448,
      "dish": 8449,
      "easy": 8450,
      "mac": 8451,
      "nations": 8452,
      "tes": 8453,
      "ívar": 8454,
      "inaug": 8455,
      "represents": 8456,
      "ende": 8457,
      "uni": 8458,
      "agu": 8459,
      "otal": 8460,
      "plus": 8461,
      "shor": 8462,
      "clock": 8463,
      "feather": 8464,
      "Anti": 8465,
      "temples": 8466,
      "internal": 8467,
      "Along": 8468,
      "retreat": 8469,
      "Real": 8470,
      "genetic": 8471,
      "cki": 8472,
      "parish": 8473,
      "engage": 8474,
      "Rober": 8475,
      "Gerard": 8476,
      "Johnston": 8477,
      "simultane": 8478,
      "kingdom": 8479,
      "ossal": 8480,
      "Mega": 8481,
      "organisation": 8482,
      "Hergé": 8483,
      "penet": 8484,
      "aska": 8485,
      "Geoff": 8486,
      "windows": 8487,
      "1933": 8488,
      "communication": 8489,
      "communications": 8490,
      "Techn": 8491,
      "Police": 8492,
      "composer": 8493,
      "needs": 8494,
      "instance": 8495,
      "occupation": 8496,
      "argues": 8497,
      "Typhoon": 8498,
      "prevented": 8499,
      "objects": 8500,
      "keeping": 8501,
      "Janeiro": 8502,
      "Bolívar": 8503,
      "picture": 8504,
      "segment": 8505,
      "descend": 8506,
      "global": 8507,
      "preferred": 8508,
      "reinforcements": 8509,
      "Cambodia": 8510,
      "bridges": 8511,
      "iques": 8512,
      "doubt": 8513,
      "circumstances": 8514,
      "Saprang": 8515,
      "Kilmer": 8516,
      "Queensland": 8517,
      "vertebr": 8518,
      "86": 8519,
      "Bureau": 8520,
      "Dark": 8521,
      "JMA": 8522,
      "PC": 8523,
      "Pot": 8524,
      "Race": 8525,
      "Sem": 8526,
      "Trail": 8527,
      "Vari": 8528,
      "Wing": 8529,
      "kān": 8530,
      "mates": 8531,
      "oto": 8532,
      "pare": 8533,
      "rant": 8534,
      "sailed": 8535,
      "tu": 8536,
      "ware": 8537,
      "ths": 8538,
      "erog": 8539,
      "enous": 8540,
      "icul": 8541,
      "heim": 8542,
      "adm": 8543,
      "bee": 8544,
      "forth": 8545,
      "ela": 8546,
      "prove": 8547,
      "sher": 8548,
      "dialogue": 8549,
      "iang": 8550,
      "Stand": 8551,
      "posure": 8552,
      "Hearts": 8553,
      "crest": 8554,
      "displays": 8555,
      "nov": 8556,
      "anyone": 8557,
      "interaction": 8558,
      "cris": 8559,
      "Comple": 8560,
      "causes": 8561,
      "valid": 8562,
      "soul": 8563,
      "Clinton": 8564,
      "falls": 8565,
      "periods": 8566,
      "extent": 8567,
      "collect": 8568,
      "narrative": 8569,
      "Moore": 8570,
      "representative": 8571,
      "BCE": 8572,
      "survive": 8573,
      "municipal": 8574,
      "travelled": 8575,
      "electronic": 8576,
      "Media": 8577,
      "Koreans": 8578,
      "departure": 8579,
      "Lawton": 8580,
      "bledon": 8581,
      "throwing": 8582,
      "moments": 8583,
      "Lords": 8584,
      "Justice": 8585,
      "Garc": 8586,
      "architecture": 8587,
      "Nazi": 8588,
      "prompted": 8589,
      "Palestine": 8590,
      "proposal": 8591,
      "teorological": 8592,
      "deemed": 8593,
      "Fraser": 8594,
      "Wimbledon": 8595,
      "08": 8596,
      "Bark": 8597,
      "Gary": 8598,
      "Kin": 8599,
      "Our": 8600,
      "Sweet": 8601,
      "Tun": 8602,
      "cip": 8603,
      "citing": 8604,
      "gap": 8605,
      "mers": 8606,
      "ois": 8607,
      "obl": 8608,
      "ske": 8609,
      "sung": 8610,
      "ancing": 8611,
      "reconstruction": 8612,
      "atropical": 8613,
      "stim": 8614,
      "toll": 8615,
      "acle": 8616,
      "sect": 8617,
      "ira": 8618,
      "imprison": 8619,
      "eline": 8620,
      "opt": 8621,
      "shut": 8622,
      "library": 8623,
      "feed": 8624,
      "ights": 8625,
      "corner": 8626,
      "compounds": 8627,
      "aux": 8628,
      "scop": 8629,
      "flash": 8630,
      "venues": 8631,
      "arrior": 8632,
      "USS": 8633,
      "towers": 8634,
      "considers": 8635,
      "Guardian": 8636,
      "Christopher": 8637,
      "starling": 8638,
      "Canal": 8639,
      "formerly": 8640,
      "rounds": 8641,
      "Harrison": 8642,
      "behaviour": 8643,
      "influences": 8644,
      "netic": 8645,
      "looks": 8646,
      "criticised": 8647,
      "slop": 8648,
      "audio": 8649,
      "persu": 8650,
      "portrait": 8651,
      "poorly": 8652,
      "extratropical": 8653,
      "Richardson": 8654,
      "Delaware": 8655,
      "observations": 8656,
      "thinking": 8657,
      "defenders": 8658,
      "restoration": 8659,
      "instruments": 8660,
      "delayed": 8661,
      "legislation": 8662,
      "ethnic": 8663,
      "tactics": 8664,
      "Formula": 8665,
      "decorated": 8666,
      "Originally": 8667,
      "dramatic": 8668,
      "substantial": 8669,
      "Education": 8670,
      "acknowled": 8671,
      "Bi": 8672,
      "Bio": 8673,
      "Dak": 8674,
      "Komb": 8675,
      "RNA": 8676,
      "Tai": 8677,
      "Ward": 8678,
      "dney": 8679,
      "grown": 8680,
      "lad": 8681,
      "zes": 8682,
      "rebuilt": 8683,
      "remember": 8684,
      "icon": 8685,
      "lev": 8686,
      "chrom": 8687,
      "irid": 8688,
      "una": 8689,
      "iders": 8690,
      "uscript": 8691,
      "emp": 8692,
      "poets": 8693,
      "attained": 8694,
      "ranges": 8695,
      "Then": 8696,
      "mines": 8697,
      "arrive": 8698,
      "useful": 8699,
      "ificial": 8700,
      "1940s": 8701,
      "Management": 8702,
      "defending": 8703,
      "casting": 8704,
      "1957": 8705,
      "Administ": 8706,
      "tests": 8707,
      "tested": 8708,
      "Berlin": 8709,
      "ullen": 8710,
      "villages": 8711,
      "Atlanta": 8712,
      "copy": 8713,
      "Keamy": 8714,
      "models": 8715,
      "establishing": 8716,
      "properties": 8717,
      "documents": 8718,
      "feelings": 8719,
      "Cathedral": 8720,
      "climate": 8721,
      "divor": 8722,
      "severely": 8723,
      "Upper": 8724,
      "pursue": 8725,
      "smooth": 8726,
      "onomy": 8727,
      "Mortal": 8728,
      "journalist": 8729,
      "strategy": 8730,
      "criminal": 8731,
      "astronom": 8732,
      "rhythm": 8733,
      "Hitler": 8734,
      "Kombat": 8735,
      "07": 8736,
      "Link": 8737,
      "MI": 8738,
      "Plan": 8739,
      "Rest": 8740,
      "Sab": 8741,
      "Tar": 8742,
      "Wright": 8743,
      "founder": 8744,
      "hid": 8745,
      "iet": 8746,
      "oing": 8747,
      "uto": 8748,
      "thosaurus": 8749,
      "inher": 8750,
      "informed": 8751,
      "recur": 8752,
      "remarked": 8753,
      "orient": 8754,
      "roit": 8755,
      "ilst": 8756,
      "sevent": 8757,
      "aments": 8758,
      "constitution": 8759,
      "ride": 8760,
      "resigned": 8761,
      "1928": 8762,
      "compete": 8763,
      "emies": 8764,
      "quant": 8765,
      "gry": 8766,
      "grade": 8767,
      "productions": 8768,
      "warships": 8769,
      "See": 8770,
      "ithic": 8771,
      "cargo": 8772,
      "atherine": 8773,
      "Guard": 8774,
      "counties": 8775,
      "trading": 8776,
      "Minor": 8777,
      "Ministry": 8778,
      "behavior": 8779,
      "techniques": 8780,
      "doesn": 8781,
      "Soon": 8782,
      "assisted": 8783,
      "respective": 8784,
      "Offic": 8785,
      "engineer": 8786,
      "ranging": 8787,
      "altern": 8788,
      "Arabic": 8789,
      "Silver": 8790,
      "Rajne": 8791,
      "tunnel": 8792,
      "Satur": 8793,
      "Albums": 8794,
      "encountered": 8795,
      "sisters": 8796,
      "Detroit": 8797,
      "Jacob": 8798,
      "Plunketts": 8799,
      "Corythosaurus": 8800,
      "02": 8801,
      "Call": 8802,
      "Gra": 8803,
      "Hob": 8804,
      "IA": 8805,
      "Jr": 8806,
      "Kit": 8807,
      "Mand": 8808,
      "Natives": 8809,
      "Rul": 8810,
      "Wrestling": 8811,
      "barri": 8812,
      "dale": 8813,
      "jan": 8814,
      "pus": 8815,
      "patch": 8816,
      "uable": 8817,
      "vals": 8818,
      "endi": 8819,
      "orbit": 8820,
      "stick": 8821,
      "wasn": 8822,
      "determ": 8823,
      "olay": 8824,
      "unlike": 8825,
      "condem": 8826,
      "apore": 8827,
      "1926": 8828,
      "utz": 8829,
      "abund": 8830,
      "prosecut": 8831,
      "expression": 8832,
      "outbreak": 8833,
      "poison": 8834,
      "otherwise": 8835,
      "format": 8836,
      "brush": 8837,
      "Anzac": 8838,
      "helmet": 8839,
      "originated": 8840,
      "triple": 8841,
      "northward": 8842,
      "gets": 8843,
      "readers": 8844,
      "Allah": 8845,
      "striking": 8846,
      "difference": 8847,
      "voiced": 8848,
      "burgh": 8849,
      "Express": 8850,
      "ugal": 8851,
      "experiences": 8852,
      "Palmy": 8853,
      "audiences": 8854,
      "Jews": 8855,
      "civilians": 8856,
      "engineers": 8857,
      "satellite": 8858,
      "bellion": 8859,
      "depicts": 8860,
      "Singapore": 8861,
      "rupted": 8862,
      "spoke": 8863,
      "FIA": 8864,
      "indicating": 8865,
      "demonstrated": 8866,
      "closure": 8867,
      "iggest": 8868,
      "schedule": 8869,
      "ordinary": 8870,
      "Defence": 8871,
      "Phoen": 8872,
      "crops": 8873,
      "Marlborough": 8874,
      "pyramid": 8875,
      "infrastructure": 8876,
      "guilty": 8877,
      "erogative": 8878,
      "crisis": 8879,
      "determine": 8880,
      "83": 8881,
      "84": 8882,
      "Bath": 8883,
      "Clar": 8884,
      "Dave": 8885,
      "Dick": 8886,
      "Las": 8887,
      "Let": 8888,
      "Ren": 8889,
      "bore": 8890,
      "fault": 8891,
      "festival": 8892,
      "gie": 8893,
      "hunting": 8894,
      "kitsune": 8895,
      "mam": 8896,
      "ng": 8897,
      "rants": 8898,
      "rush": 8899,
      "sq": 8900,
      "vast": 8901,
      "inet": 8902,
      "ente": 8903,
      "amino": 8904,
      "bear": 8905,
      "bears": 8906,
      "ima": 8907,
      "owie": 8908,
      "aya": 8909,
      "rial": 8910,
      "atech": 8911,
      "excell": 8912,
      "graf": 8913,
      "notably": 8914,
      "portions": 8915,
      "blow": 8916,
      "1850": 8917,
      "partner": 8918,
      "disput": 8919,
      "mec": 8920,
      "spin": 8921,
      "scattered": 8922,
      "understood": 8923,
      "elections": 8924,
      "doct": 8925,
      "ologies": 8926,
      "warning": 8927,
      "describe": 8928,
      "cleared": 8929,
      "Season": 8930,
      "musician": 8931,
      "iously": 8932,
      "Fei": 8933,
      "differences": 8934,
      "refuge": 8935,
      "1934": 8936,
      "21st": 8937,
      "Earl": 8938,
      "closest": 8939,
      "Phillies": 8940,
      "garrison": 8941,
      "circle": 8942,
      "Championships": 8943,
      "burning": 8944,
      "electron": 8945,
      "violent": 8946,
      "kilome": 8947,
      "Trans": 8948,
      "powered": 8949,
      "Miller": 8950,
      "weapon": 8951,
      "drove": 8952,
      "evacuation": 8953,
      "touchdowns": 8954,
      "Confess": 8955,
      "Pitman": 8956,
      "Gallery": 8957,
      "Supreme": 8958,
      "Nevertheless": 8959,
      "distinguished": 8960,
      "Baseball": 8961,
      "assembled": 8962,
      "Ricky": 8963,
      "predecessor": 8964,
      "Territory": 8965,
      "Stefani": 8966,
      "Corporation": 8967,
      "García": 8968,
      "1000": 8969,
      "73": 8970,
      "ES": 8971,
      "Ey": 8972,
      "Event": 8973,
      "Gate": 8974,
      "Hend": 8975,
      "Hok": 8976,
      "Having": 8977,
      "Much": 8978,
      "Ra": 8979,
      "Shel": 8980,
      "Wic": 8981,
      "cock": 8982,
      "eter": 8983,
      "fate": 8984,
      "fishing": 8985,
      "lig": 8986,
      "lined": 8987,
      "sale": 8988,
      "ár": 8989,
      "eries": 8990,
      "oral": 8991,
      "tox": 8992,
      "terrain": 8993,
      "idation": 8994,
      "ressing": 8995,
      "residence": 8996,
      "liber": 8997,
      "exposure": 8998,
      "manuscript": 8999,
      "Cho": 9000,
      "ranking": 9001,
      "desert": 9002,
      "displayed": 9003,
      "prepare": 9004,
      "oys": 9005,
      "cancer": 9006,
      "Shik": 9007,
      "trials": 9008,
      "chell": 9009,
      "considering": 9010,
      "venture": 9011,
      "Monument": 9012,
      "fallen": 9013,
      "Cook": 9014,
      "generals": 9015,
      "marry": 9016,
      "factors": 9017,
      "moderate": 9018,
      "Sydney": 9019,
      "goddess": 9020,
      "railroad": 9021,
      "conclusion": 9022,
      "altered": 9023,
      "Overall": 9024,
      "FIFA": 9025,
      "bombard": 9026,
      "Enterprise": 9027,
      "vehicle": 9028,
      "opponent": 9029,
      "collapsed": 9030,
      "restricted": 9031,
      "suspended": 9032,
      "supporters": 9033,
      "Initially": 9034,
      "martial": 9035,
      "Treaty": 9036,
      "batsman": 9037,
      "Bass": 9038,
      "Bush": 9039,
      "Baker": 9040,
      "Id": 9041,
      "JT": 9042,
      "Mach": 9043,
      "Roc": 9044,
      "Sid": 9045,
      "Such": 9046,
      "UC": 9047,
      "Women": 9048,
      "dangerous": 9049,
      "ij": 9050,
      "lord": 9051,
      "sunk": 9052,
      "saved": 9053,
      "tap": 9054,
      "vor": 9055,
      "wrest": 9056,
      "yd": 9057,
      "ici": 9058,
      "chamber": 9059,
      "imperial": 9060,
      "rible": 9061,
      "resign": 9062,
      "Ing": 9063,
      "diet": 9064,
      "ocy": 9065,
      "udo": 9066,
      "ifies": 9067,
      "landings": 9068,
      "Until": 9069,
      "mainland": 9070,
      "obvious": 9071,
      "locks": 9072,
      "paras": 9073,
      "operates": 9074,
      "ahi": 9075,
      "Guide": 9076,
      "approval": 9077,
      "mbar": 9078,
      "Web": 9079,
      "situated": 9080,
      "ruling": 9081,
      "interesting": 9082,
      "housing": 9083,
      "nationally": 9084,
      "Furt": 9085,
      "classification": 9086,
      "Caes": 9087,
      "celebrated": 9088,
      "demands": 9089,
      "Legacy": 9090,
      "premiere": 9091,
      "pupils": 9092,
      "spiritual": 9093,
      "slip": 9094,
      "McCarty": 9095,
      "Ohio": 9096,
      "Dominican": 9097,
      "exclusively": 9098,
      "Olmec": 9099,
      "Aerith": 9100,
      "giant": 9101,
      "Persian": 9102,
      "scheme": 9103,
      "Hudson": 9104,
      "Alfred": 9105,
      "absolute": 9106,
      "05": 9107,
      "09": 9108,
      "Budd": 9109,
      "Cir": 9110,
      "Cab": 9111,
      "CBS": 9112,
      "Dor": 9113,
      "Dig": 9114,
      "Denn": 9115,
      "Fil": 9116,
      "Hom": 9117,
      "Hope": 9118,
      "Last": 9119,
      "Lev": 9120,
      "Nel": 9121,
      "Yug": 9122,
      "bran": 9123,
      "biggest": 9124,
      "driver": 9125,
      "hull": 9126,
      "kne": 9127,
      "laugh": 9128,
      "saves": 9129,
      "threw": 9130,
      "hearing": 9131,
      "leon": 9132,
      "acles": 9133,
      "constitut": 9134,
      "elder": 9135,
      "rifle": 9136,
      "ribute": 9137,
      "uty": 9138,
      "clust": 9139,
      "livan": 9140,
      "oslav": 9141,
      "express": 9142,
      "ifer": 9143,
      "creative": 9144,
      "creek": 9145,
      "contribution": 9146,
      "pressing": 9147,
      "disaster": 9148,
      "Ark": 9149,
      "retre": 9150,
      "underwent": 9151,
      "colum": 9152,
      "Release": 9153,
      "Lead": 9154,
      "azines": 9155,
      "steep": 9156,
      "milit": 9157,
      "Grade": 9158,
      "Allen": 9159,
      "explo": 9160,
      "realized": 9161,
      "Edge": 9162,
      "Moon": 9163,
      "Portugal": 9164,
      "agogue": 9165,
      "statistics": 9166,
      "temporarily": 9167,
      "employment": 9168,
      "thodon": 9169,
      "costs": 9170,
      "Markgraf": 9171,
      "amounts": 9172,
      "subjects": 9173,
      "Campaign": 9174,
      "steps": 9175,
      "southeastern": 9176,
      "opportunities": 9177,
      "struggle": 9178,
      "Krak": 9179,
      "premiered": 9180,
      "Furthermore": 9181,
      "collapse": 9182,
      "dispatch": 9183,
      "slide": 9184,
      "Swedish": 9185,
      "publisher": 9186,
      "trouble": 9187,
      "accurate": 9188,
      "Raffles": 9189,
      "Sullivan": 9190,
      "perspective": 9191,
      "Saturday": 9192,
      "JTWC": 9193,
      "Furtado": 9194,
      "Come": 9195,
      "Et": 9196,
      "Ful": 9197,
      "Kenn": 9198,
      "Lith": 9199,
      "Pow": 9200,
      "Pier": 9201,
      "Ster": 9202,
      "Social": 9203,
      "Ta": 9204,
      "Usta": 9205,
      "banned": 9206,
      "dwar": 9207,
      "jona": 9208,
      "nit": 9209,
      "pist": 9210,
      "rator": 9211,
      "taker": 9212,
      "vir": 9213,
      "wreck": 9214,
      "eration": 9215,
      "assembly": 9216,
      "urs": 9217,
      "consc": 9218,
      "usage": 9219,
      "tram": 9220,
      "trough": 9221,
      "truck": 9222,
      "artwork": 9223,
      "aku": 9224,
      "oda": 9225,
      "prerogative": 9226,
      "Stu": 9227,
      "ewise": 9228,
      "renov": 9229,
      "coordin": 9230,
      "raising": 9231,
      "ricts": 9232,
      "Arjona": 9233,
      "tenance": 9234,
      "charity": 9235,
      "elevation": 9236,
      "highways": 9237,
      "backs": 9238,
      "Sholay": 9239,
      "succeed": 9240,
      "depending": 9241,
      "Stewart": 9242,
      "magazines": 9243,
      "Interstate": 9244,
      "radiation": 9245,
      "Valky": 9246,
      "cules": 9247,
      "measured": 9248,
      "researchers": 9249,
      "Years": 9250,
      "Trib": 9251,
      "reservo": 9252,
      "frequent": 9253,
      "iliar": 9254,
      "Campbell": 9255,
      "dominant": 9256,
      "Headquarters": 9257,
      "withdrawal": 9258,
      "NCAA": 9259,
      "qualified": 9260,
      "Hawaii": 9261,
      "Simpson": 9262,
      "advertising": 9263,
      "neutral": 9264,
      "fatal": 9265,
      "seeking": 9266,
      "NHL": 9267,
      "eliminated": 9268,
      "Gilbert": 9269,
      "conspiracy": 9270,
      "psych": 9271,
      "DAG": 9272,
      "retirement": 9273,
      "Mozambique": 9274,
      "muscaria": 9275,
      "Ustaš": 9276,
      "Ag": 9277,
      "Amy": 9278,
      "Gro": 9279,
      "Hamp": 9280,
      "Kann": 9281,
      "Knight": 9282,
      "Labour": 9283,
      "Nic": 9284,
      "Niel": 9285,
      "Nash": 9286,
      "Napo": 9287,
      "Rap": 9288,
      "Raw": 9289,
      "Tan": 9290,
      "Tax": 9291,
      "Wander": 9292,
      "bac": 9293,
      "card": 9294,
      "gross": 9295,
      "jury": 9296,
      "jung": 9297,
      "pound": 9298,
      "rations": 9299,
      "tub": 9300,
      "viv": 9301,
      "vati": 9302,
      "inations": 9303,
      "erry": 9304,
      "enthus": 9305,
      "stin": 9306,
      "oux": 9307,
      "oma": 9308,
      "oming": 9309,
      "chess": 9310,
      "rib": 9311,
      "emia": 9312,
      "exists": 9313,
      "manga": 9314,
      "loose": 9315,
      "Hey": 9316,
      "Thus": 9317,
      "scr": 9318,
      "angel": 9319,
      "Arsen": 9320,
      "ryce": 9321,
      "osex": 9322,
      "crake": 9323,
      "iverse": 9324,
      "Dean": 9325,
      "subspecies": 9326,
      "submitted": 9327,
      "releases": 9328,
      "relations": 9329,
      "Ship": 9330,
      "14th": 9331,
      "designer": 9332,
      "Graves": 9333,
      "lights": 9334,
      "characterized": 9335,
      "promised": 9336,
      "armoured": 9337,
      "publications": 9338,
      "childhood": 9339,
      "affili": 9340,
      "advancing": 9341,
      "Coach": 9342,
      "explains": 9343,
      "putting": 9344,
      "household": 9345,
      "Barry": 9346,
      "testing": 9347,
      "capturing": 9348,
      "everyone": 9349,
      "directors": 9350,
      "profile": 9351,
      "1908": 9352,
      "cyclones": 9353,
      "Maggie": 9354,
      "harbour": 9355,
      "honour": 9356,
      "employees": 9357,
      "reveal": 9358,
      "culmin": 9359,
      "freedom": 9360,
      "Toronto": 9361,
      "credit": 9362,
      "biograph": 9363,
      "nominations": 9364,
      "withdrawn": 9365,
      "Israeli": 9366,
      "Boys": 9367,
      "Protestant": 9368,
      "initiated": 9369,
      "Communist": 9370,
      "niowie": 9371,
      "Austria": 9372,
      "environmental": 9373,
      "benefit": 9374,
      "Lincol": 9375,
      "Hungarian": 9376,
      "dinosaur": 9377,
      "Belgium": 9378,
      "strategic": 9379,
      "jackrab": 9380,
      "Heavyweight": 9381,
      "Watson": 9382,
      "conventional": 9383,
      "Wiś": 9384,
      "Barker": 9385,
      "Yugoslav": 9386,
      "columns": 9387,
      "dwarf": 9388,
      "117": 9389,
      "113": 9390,
      "Ah": 9391,
      "Da": 9392,
      "Eagle": 9393,
      "Hop": 9394,
      "Have": 9395,
      "Ku": 9396,
      "SM": 9397,
      "Sis": 9398,
      "UFC": 9399,
      "Wag": 9400,
      "eat": 9401,
      "hind": 9402,
      "ogram": 9403,
      "sad": 9404,
      "sang": 9405,
      "skills": 9406,
      "ux": 9407,
      "yield": 9408,
      "ön": 9409,
      "enemies": 9410,
      "stores": 9411,
      "aman": 9412,
      "conversion": 9413,
      "1923": 9414,
      "peaking": 9415,
      "proportion": 9416,
      "akum": 9417,
      "avo": 9418,
      "geon": 9419,
      "ported": 9420,
      "iao": 9421,
      "kees": 9422,
      "guerr": 9423,
      "centers": 9424,
      "Ancient": 9425,
      "coins": 9426,
      "spend": 9427,
      "spots": 9428,
      "visiting": 9429,
      "drain": 9430,
      "thereafter": 9431,
      "azirid": 9432,
      "servative": 9433,
      "hypo": 9434,
      "balls": 9435,
      "metre": 9436,
      "placement": 9437,
      "disturb": 9438,
      "familiar": 9439,
      "topped": 9440,
      "Paraly": 9441,
      "Parvati": 9442,
      "margin": 9443,
      "Tracy": 9444,
      "urricanes": 9445,
      "strongest": 9446,
      "posts": 9447,
      "tooth": 9448,
      "1905": 9449,
      "graduate": 9450,
      "Hills": 9451,
      "tellect": 9452,
      "businesses": 9453,
      "Rocky": 9454,
      "boundary": 9455,
      "petition": 9456,
      "Glad": 9457,
      "Business": 9458,
      "holiday": 9459,
      "Turks": 9460,
      "rolling": 9461,
      "balance": 9462,
      "spores": 9463,
      "Mrs": 9464,
      "Bulgar": 9465,
      "Derry": 9466,
      "batteries": 9467,
      "targets": 9468,
      "hills": 9469,
      "concentrated": 9470,
      "excavation": 9471,
      "emphasis": 9472,
      "beauty": 9473,
      "strengthened": 9474,
      "cemetery": 9475,
      "Réunion": 9476,
      "Organization": 9477,
      "discipl": 9478,
      "Building": 9479,
      "kāntav": 9480,
      "Phoenix": 9481,
      "Arsenal": 9482,
      "Wiśniowie": 9483,
      "Paralymp": 9484,
      "Ace": 9485,
      "Asian": 9486,
      "Benn": 9487,
      "Dri": 9488,
      "Dum": 9489,
      "Ep": 9490,
      "Eaton": 9491,
      "Gwen": 9492,
      "Hou": 9493,
      "IAA": 9494,
      "Jason": 9495,
      "Khand": 9496,
      "Nev": 9497,
      "Sans": 9498,
      "Slayer": 9499,
      "Vul": 9500,
      "Wild": 9501,
      "dles": 9502,
      "fusion": 9503,
      "oe": 9504,
      "votes": 9505,
      "wings": 9506,
      "inus": 9507,
      "edges": 9508,
      "alive": 9509,
      "essee": 9510,
      "itim": 9511,
      "heera": 9512,
      "rol": 9513,
      "adier": 9514,
      "beats": 9515,
      "ige": 9516,
      "rik": 9517,
      "shock": 9518,
      "artificial": 9519,
      "diver": 9520,
      "aki": 9521,
      "feels": 9522,
      "avar": 9523,
      "avia": 9524,
      "gray": 9525,
      "prime": 9526,
      "brain": 9527,
      "adequ": 9528,
      "consin": 9529,
      "ropolitan": 9530,
      "myst": 9531,
      "engagement": 9532,
      "ashi": 9533,
      "Carmel": 9534,
      "districts": 9535,
      "decay": 9536,
      "decides": 9537,
      "gged": 9538,
      "labe": 9539,
      "aimed": 9540,
      "latex": 9541,
      "variation": 9542,
      "starlings": 9543,
      "genera": 9544,
      "believing": 9545,
      "Program": 9546,
      "burial": 9547,
      "amongst": 9548,
      "friendly": 9549,
      "Anglo": 9550,
      "fundam": 9551,
      "mediate": 9552,
      "Poly": 9553,
      "sounds": 9554,
      "rocks": 9555,
      "swim": 9556,
      "fifty": 9557,
      "fifteen": 9558,
      "delivery": 9559,
      "synthe": 9560,
      "discuss": 9561,
      "beaten": 9562,
      "iggs": 9563,
      "Tennessee": 9564,
      "Critics": 9565,
      "architectural": 9566,
      "Rhodesia": 9567,
      "illustr": 9568,
      "Murray": 9569,
      "Jonathan": 9570,
      "patrol": 9571,
      "adaptation": 9572,
      "inscription": 9573,
      "inscriptions": 9574,
      "removal": 9575,
      "merely": 9576,
      "appreci": 9577,
      "Kelly": 9578,
      "Network": 9579,
      "Patty": 9580,
      "Wisconsin": 9581,
      "Roberts": 9582,
      "Lithuan": 9583,
      "Ustaše": 9584,
      "Kannada": 9585,
      "kāntavāda": 9586,
      "06": 9587,
      "Abr": 9588,
      "Cla": 9589,
      "Categ": 9590,
      "EA": 9591,
      "Gib": 9592,
      "Hans": 9593,
      "Imp": 9594,
      "Kon": 9595,
      "Kur": 9596,
      "Lam": 9597,
      "Lim": 9598,
      "Lost": 9599,
      "Midge": 9600,
      "Már": 9601,
      "Nam": 9602,
      "Next": 9603,
      "Son": 9604,
      "Seven": 9605,
      "VII": 9606,
      "bind": 9607,
      "cave": 9608,
      "flies": 9609,
      "fountain": 9610,
      "gren": 9611,
      "iate": 9612,
      "mmet": 9613,
      "oh": 9614,
      "pounder": 9615,
      "inian": 9616,
      "insur": 9617,
      "intellect": 9618,
      "isc": 9619,
      "toured": 9620,
      "icity": 9621,
      "illegal": 9622,
      "amid": 9623,
      "uncertain": 9624,
      "teries": 9625,
      "conservation": 9626,
      "usive": 9627,
      "1925": 9628,
      "suicide": 9629,
      "neath": 9630,
      "eme": 9631,
      "ods": 9632,
      "acked": 9633,
      "string": 9634,
      "notice": 9635,
      "achute": 9636,
      "pressive": 9637,
      "deser": 9638,
      "Anne": 9639,
      "oyage": 9640,
      "substitute": 9641,
      "surprise": 9642,
      "arriving": 9643,
      "choir": 9644,
      "legitim": 9645,
      "placing": 9646,
      "Gray": 9647,
      "ennium": 9648,
      "talking": 9649,
      "breed": 9650,
      "fortun": 9651,
      "Perfect": 9652,
      "howitz": 9653,
      "Davis": 9654,
[...]
